#version: 0.2
s e
o n
Ġ /
H T
T P
p l
Ġ HT
ĠHT TP
Ġ "
a s
i n
se r
a r
e x
a m
o m
E T
H o
G ET
c om
s t
Ġ ex
pl e
am ple
Ho st
Ġex ample
e n
en t
i on
" :
a p
u ser
as s
p ass
c h
a d
ad m
adm in
se ar
sear ch
b o
d as
h bo
ar d
das hbo
dashbo ard
i d
g in
l o
lo gin
on t
a t
c at
U ser
s s
A g
M o
i l
l a
z il
Ġ Mo
Ag ent
zil la
ĠMo zilla
Ġ se
C o
i e
k ie
o kie
ss ion
Ġse ssion
Co okie
" ,
" }
C ont
O S
P OS
T y
i cat
j s
p e
{ "
Ġ ap
pl icat
ap i
Cont ent
POS T
Ty pe
js on
Ġap plicat
Ġapplicat ion
2 5
25 2
i p
* /
* */
c r
L E
ip t
2 0
cr ipt
R O
252 0
/ **/
pass w
1 2
l e
S E
r t
a le
e t
ale rt
C T
et c
RO M
passw d
s cript
LE CT
F ROM
SE LECT
user s
c t
h on
ip hon
iphon e
3 4
12 34
1234 5
a ct
c ont
cont act
25 3
1 12
S S
O R
a v
o r
e c
j av
h o
jav as
2 8
2 9
javas cript
w ho
am i
ch r
or d
ex ec
A B
X SS
who ami
= %
U N
admin s
passw ord
O N
T AB
RO P
252 8
252 9
UN I
D ROP
TAB LE
UNI ON
= /
& &
) )
' )
( '
< /
') </
2 7
= &&
Ġ FROM
A alert
= |
Ġ 1
Ġ users
Ġ *
C script
E alert
252 6
= <
Ġ" %
2 6
252 7
Ġ" /
l E
Ġ whoami
Ġ cat
28 1
L e
s E
2520 1
Ġ f
20 1
) "}
Ġ" |
28 112
Ġ SELECT
Ġ TABLE
/**/ /
S e
2528 112
Ġ u
*/ **/
/**/ */**/
S s
25 7
Ġ admins
Ġ" &&
2528 1
Ġ password
)) "}
> "}
Ġ" <
Ġ F
Ġ U
i P
P A
C R
r O
c R
p A
I p
C r
s S
=| /**/
=&& /**/
I P
Ġ C
R s
e T
r o
R t
E t
w d
w D
W d
r T
Ġ A
R o
W D
O r
M I
Ġ W
Ġ t
R S
C t
o R
iP t
r s
Ġ T
p a
S CR
Ġ c
Ip T
M i
R T
c T
iP T
P a
ip T
Ġ w
S Cr
r S
as S
s cR
m I
Ip t
eT c
IP T
S cR
A t
s Cr
s CR
N S
Ġ"| /**/
Ġu SE
Et C
r om
Ġ"&& /**/
Ġ PA
C h
Ġ Se
ĠF rO
IP t
O A
ĠU sE
ro M
o N
ĠT a
A le
H r
s cr
ET c
et C
Ġu sE
Ġu Se
E C
P ass
A b
R om
U n
a Le
Ġ SE
ĠU SE
S cr
e X
A T
a lE
ĠA d
a V
m i
u N
Ro M
a T
u n
ĠA D
A LE
E c
E x
Ġ pA
eT C
a D
Ġ aD
Et c
A v
A lE
Ġ sE
pa SS
A Le
Ġf rO
ĠU Se
RO m
E X
e C
Pa Ss
A V
O n
a LE
ET C
Ġt a
pa Ss
lE ct
Or d
N s
X sS
H R
p asS
P asS
ĠFrO M
Ġ ad
Le ct
Ġf roM
ĠC at
n s
RO p
OR d
ĠC At
ĠTa B
x SS
Ġf rom
Ġc At
Pa SS
d ro
le ct
lE CT
Ġf Rom
Ġt AB
ĠT Ab
C Hr
M in
OR D
lE cT
ĠC AT
Ch R
H OA
a Mi
h OA
le cT
ĠF rom
Ch r
D Ro
L ec
i ON
ch R
Ġf RoM
PA SS
PA sS
pA SS
pA sS
un I
Lec T
J av
i oN
n S
Ġ who
ĠW ho
Un I
Ġta b
H O
J aV
c Hr
d rO
j aV
lE Ct
Ġf ROM
Ġu se
PA ss
PA Ss
Ġc aT
Av A
ĠfrO m
D ro
x ss
le CT
ĠF ROm
pA Ss
ĠC aT
oR D
Ġw Ho
D rO
j AV
Ġ adm
LE Ct
ĠF roM
ĠF RoM
ĠFrO m
ĠTa b
Le Ct
ĠF Rom
pA ss
Ġt Ab
oR d
d Ro
x sS
Ġ User
Ġ TAB
Ġ Pass
le Ct
Le CT
Ġc AT
ĠusE Rs
uN I
W Ord
x Ss
Ġf ROm
Ale Rt
aLe rT
ĠfrO M
C HR
J AV
X ss
X Ss
d ROp
i On
w ORd
ĠuSE rs
dro P
W ORD
h O
ss w
LE cT
ĠU se
ĠW Ho
ĠuSe rs
c HR
d ROP
as CR
ex Ec
MI NS
Ġw HOA
ĠPA sS
ĠUSE Rs
alE rt
ĠAd mI
Min s
ĠwHo A
a SCR
m in
Ġ PaSs
Ġ paSs
LE ct
ale Rt
ale rT
Or D
MI ns
SCr iPt
ĠuSE Rs
eX ec
ALe rt
DRo p
Ġwho A
Dro p
Ġadm I
W ord
a MI
am I
or D
ĠuSE RS
ĠPA Ss
ĠUsE Rs
ĠUsE RS
ĠUsE rS
ĠuSe Rs
aLe Rt
eX EC
Ġta B
ĠTAb lE
ĠWho A
JaV A
drO P
DrO p
D ROp
j AvA
Ġ user
ĠW hOA
ĠW HO
Ġw hOA
sCr ipT
Ale rt
Ex ec
Ex EC
ĠaD mI
AlE Rt
paSS wD
ĠUSe Rs
ĠUSe rs
Ġuser S
J Av
W ORd
W oRd
ex eC
Mi NS
SCr Ipt
scR IpT
sCR iPT
ĠuSe rS
ĠUSE RS
alE rT
mi NS
ALE rt
ALE RT
ĠpA sS
AlE rT
EX EC
aLE Rt
Min S
Jav A
Ġuse RS
dRo P
ĠUser S
S cript
w ord
w Ord
w oRD
as cR
ex EC
ĠW HOA
ScR ipT
ĠuSE rS
ĠPA SS
ĠUsE rs
ĠusE rs
aLe rt
ĠUSE rs
alE RT
ALE Rt
ALe Rt
EX Ec
dro p
Ġuse Rs
J AvA
Ġ paSS
Ġ pasS
MI nS
ĠW hO
SCR IPT
Mi Ns
Ġw HO
sCR iPt
Ale RT
ĠusE RS
ĠusE rS
Pass WD
ĠUSE rS
eX eC
uN ion
Ex eC
paSs wd
pasS wD
PaSS wd
DRo P
W oRD
as cr
SE lEct
UNI on
SCr ipt
scR IPT
ScR ipt
Ale rT
scr iPt
scr IpT
Pass wD
eX Ec
mi Ns
ĠAD mI
ALE rT
ĠpA SS
ĠpA Ss
ĠpA ssw
AlE RT
ALe rT
EX ec
PaSs Wd
aLE rT
aLE RT
ĠTaB le
ĠtAB le
pASS WD
pAsS Wd
unI oN
drO p
jaV A
PASs wd
pASs wD
w OrD
Ġ PasS
pass Wd
pass WD
UNI On
SCR iPT
scR ipt
scR iPT
scR Ipt
ScR iPt
ScR IpT
sCr iPt
sCr IPT
scr iPT
ĠuSe RS
Un ion
Scr ipT
alE Rt
Ex Ec
AlE rt
paSS wd
ĠUSe rS
PaSs wD
aLE rt
PasS Wd
ĠTaB LE
PASS wd
PASS WD
PAsS wd
Ġtab LE
ĠUse Rs
ĠUse RS
min s
a SCr
j Av
w ORD
w orD
jav A
SCR ipt
SCR IPt
scR iPt
sCr IpT
sCr Ipt
sCR ipt
sCR IpT
ĠPA ssw
ĠSe lECT
ĠSe lecT
Un ioN
Scr Ipt
Scr IPt
un iON
paSS Wd
ĠUSe RS
EX eC
PasS WD
Ġad Mins
ĠTaB lE
ĠtAB lE
unI on
UnI On
PAss Wd
Dro P
DrO P
jAV A
ĠTab le
pAss Wd
ĠtAb le
dRo p
ĠUser s
ĠTAB le
JAV A
W OrD
Ġ pass
ale RT
UN iON
UN ioN
UN iOn
UNI oN
sE lect
sE LecT
SCR iPt
SCR IpT
SCR Ipt
Ġw hO
SCr iPT
SCr IPT
ScR iPT
ScR Ipt
sCr ipt
sCr iPT
sCR ipT
sCR IPt
ĠPA ss
scr Ipt
scr IPT
Pass wd
Scr iPt
Scr iPT
Scr IPT
ĠAd miNs
uN ioN
un ion
ĠsE LECT
ALe RT
PaSS WD
ĠtAB Le
ĠTAb le
PASS wD
PAsS WD
pASS Wd
pAsS wd
UnI ON
Ġtab le
PASs wD
Ġadm i
ĠTab Le
pAss wd
ĠTAB Le
uNI oN
ĠAdmI nS
min S
ĠWhoA MI
w oRd
Ġ PaSS
se Lect
se lECt
as Cr
Ġse Lect
Ġse LeCT
UN ion
sE lEct
sE lEcT
sE leCT
scR ipT
ScR IPT
ScR IPt
sCR IPT
ĠSe LECt
scr ipT
scr IPt
Un iON
aLe RT
ĠSE lect
ĠSE leCT
ĠSE LeCt
Scr IpT
uN iON
ĠAD miNS
PaSs wd
ĠTaB Le
ĠtAB LE
PAsS wD
pASS wD
pAsS wD
Ġwho aMi
UnI oN
Ġtab lE
PAss wD
PAss WD
ĠTab lE
ĠtAb lE
ĠtAb Le
ĠTAB lE
uNI on
uNI ON
ĠWHo A
ĠwHOA MI
ĠAdmI NS
ĠwHoA mI
ĠwhoA mi
ĠadmI NS
ĠadmI ns
ĠWhOA MI
ĠWHO aMi
ĠaDmI ns
Ġ passw
se LECT
Ġse lEcT
Ġse lecT
SE Lect
SE leCt
sE LEcT
Se Lect
Se LeCT
SCR ipT
scR IPt
ĠSe LecT
ĠSe LeCt
Pass Wd
ĠAd miNS
uN iOn
ĠAD MINS
ĠAD mins
ĠpA ss
ĠaD MINS
paSs Wd
pasS Wd
pasS WD
PasS wd
Ġad MINS
Ġad MIns
Ġad MiNs
ĠTAb LE
PAsS Wd
unI ON
UnI on
jaV asCR
PAss wd
PASs Wd
pASs Wd
pASs WD
ĠWHo ami
ĠWHo aMi
ĠwHOA Mi
ĠwHoA mi
ĠtaB lE
ĠtaB Le
ĠWhoA Mi
ĠwhOA Mi
ĠWHOA mi
W orD
a SCriPt
se lEct
se LEct
Ġse LECT
Ġse lect
Ġse LecT
SE lECT
SE lEcT
SE lECt
jav aSCR
sE lECt
sE LEct
Se lECT
Se lEcT
Se LECt
SCr IPt
sCR Ipt
ĠSe lEct
ĠSe Lect
Un iOn
ĠSE lEct
ĠSE Lect
ĠSE lECT
ĠSE lEcT
ĠSE leCt
ĠAd MIns
un ioN
ĠAD Mins
ĠAD MIns
ĠAD MiNS
ĠaD Mins
ĠaD MiNS
ĠaD MinS
ĠsE lEct
ĠsE lecT
ĠsE lECt
ĠsE leCT
paSS WD
paSs wD
paSs WD
pasS wd
PasS wD
Ġad MinS
Ġad MInS
PaSS wD
PaSS Wd
ĠTAb Le
pASS wd
pAsS WD
unI On
Jav a
ĠWho ami
Ġtab Le
pASs wd
jAV a
pAss WD
aSCR ipt
ĠwhoA mI
ĠPASs wORd
ĠWhOA mi
ĠWHO ami
ĠwhOA MI
ĠpAsS wOrd
ĠWhO ami
ĠwHO aMi
ascr IPt
ĠpAssw Ord
Ġadmi Ns
se lect
se lECT
se lEcT
se LecT
se leCt
se LeCT
Ġse lEct
Ġse lECT
SE lect
SE leCT
SE LECt
jav a
javas cr
sE Lect
sE lECT
sE LECt
Se LECT
Se lEct
Se lect
Se lecT
Se LeCt
MI Ns
SCr IpT
SCr ipT
sCr IPt
ĠSe lECt
ĠSE LecT
ĠSE LEcT
ĠAd MiNS
ĠAd MinS
ĠAd MInS
ĠAd minS
un iOn
ĠAD MiNs
ĠAD minS
ĠaD MIns
ĠaD MInS
ĠsE lect
ĠsE lEcT
ĠsE LECt
ĠsE leCt
Jav ascR
Ġwho aMI
ĠWho amI
JaV a
jaV ascR
PASs WD
ĠwHo ami
ĠwHo aMi
jAV asCR
pAss wD
ĠPass WORD
ĠPass woRD
JAV a
JAV asCR
ĠwHOA mI
ĠwHOA mi
ĠPAsS WOrd
ĠPAsS WoRd
ĠPAsS wOrD
ĠwHoA MI
ĠwHoA Mi
aSCR IpT
ĠpaSs WORD
ĠwhoA MI
ĠwhoA Mi
ĠtaB LE
ĠWhOA mI
ĠwhOA mI
ĠaDmI Ns
ĠaDmI nS
JAv ascr
ĠpAsS wORd
ĠWHOA MI
ĠWHOA mI
ĠpaSS worD
ĠpasS wORd
ĠWhO aMI
ĠWhO amI
ĠwHO ami
ĠADmI ns
ĠADmI nS
ĠpAssw ord
ĠPasS WoRd
aSCr ipT
jAv ascrIPt
ĠPAssw orD
Ġpass WOrd
ĠwhO amI
ĠPAss WOrd
Ġadmi NS
ĠWHoA mI
ĠpAss WOrd
jaVasCR iPt
Ġ admin
se lecT
se leCT
se LeCt
as cript
Ġse leCt
Ġse LEcT
passw D
SE lecT
SE LecT
SE LeCt
SE LEct
jav aSCripT
sE lecT
Se LecT
Se lECt
Se LEcT
ĠSe LECT
ĠSe lect
ĠSe leCT
ĠSe leCt
ĠSe LeCT
ĠSe LEcT
ĠSe LEct
ĠSE lecT
ĠSE lECt
ĠSE LECt
ĠSE LeCT
ĠAd MINS
ĠAd mins
ĠAD MinS
ĠaD miNS
ĠaD MiNs
ĠaD miNs
ĠaD mins
ĠsE lECT
ĠsE LeCt
ĠsE LEcT
ĠsE LEct
PaSs WD
Ġad MiNS
PASS Wd
ĠWho aMi
ĠWho aMI
JaV ascR
JaV aSCRipt
jaV a
jaV ascr
jAV aSCR
jAV asCr
ĠTab LE
ĠtAb LE
ĠPass WORd
ĠPass WoRd
ĠPass WoRD
ĠPass woRd
uNI On
JAV aSCr
asCR iPT
ĠPAsS wORd
ĠPAsS WORD
ĠPAsS wOrd
ĠAdmI Ns
ĠAdmI ns
ĠPaSs WOrd
ĠPaSs WORD
ĠPaSs word
ĠPaSs wORD
ĠpaSs WORd
ĠpaSs word
ĠpaSs WoRD
ĠadmI Ns
ĠadmI nS
ĠPASs Word
ĠPASs wOrd
ĠPASs WoRD
ĠtaB le
ĠWhoA mI
jAvA ScrIPt
jAvA ScRIpt
ĠWHO aMI
ĠWHO amI
ĠwhOA mi
ĠaDmI NS
JAv asCR
JAv ascR
JAv aSCriPt
ĠPASS WORD
ĠPASS word
JAvA Script
ĠpaSS WORD
ĠpaSS WORd
ĠpasS word
ĠpasS woRD
ĠwHO aMI
ĠwHO amI
ĠADmI NS
ĠADmI Ns
ĠpASS worD
ĠpASs wORd
ĠpASs Word
ĠpAssw ORD
jaVA scRipT
ĠPasS Word
jAv aSCR
ĠPAssw oRd
jAVA sCRipT
ĠwhO aMi
ĠPAss WorD
ĠPaSS WOrD
asCr IPt
ĠWHoA MI
Ġpassw ORD
JavascR ipT
jaVascR IpT
Ġadmin S
