{
  "version": "1.0",
  "truncation": null,
  "padding": null,
  "added_tokens": [
    {
      "id": 0,
      "content": "<s>",
      "single_word": false,
      "lstrip": false,
      "rstrip": false,
      "normalized": false,
      "special": true
    },
    {
      "id": 1,
      "content": "<pad>",
      "single_word": false,
      "lstrip": false,
      "rstrip": false,
      "normalized": false,
      "special": true
    },
    {
      "id": 2,
      "content": "</s>",
      "single_word": false,
      "lstrip": false,
      "rstrip": false,
      "normalized": false,
      "special": true
    },
    {
      "id": 3,
      "content": "<unk>",
      "single_word": false,
      "lstrip": false,
      "rstrip": false,
      "normalized": false,
      "special": true
    },
    {
      "id": 4,
      "content": "<mask,",
      "single_word": false,
      "lstrip": false,
      "rstrip": false,
      "normalized": false,
      "special": true
    },
    {
      "id": 30000,
      "content": "<mask,>",
      "single_word": false,
      "lstrip": false,
      "rstrip": false,
      "normalized": false,
      "special": true
    }
  ],
  "normalizer": null,
  "pre_tokenizer": {
    "type": "ByteLevel",
    "add_prefix_space": false,
    "trim_offsets": true,
    "use_regex": true
  },
  "post_processor": {
    "type": "ByteLevel",
    "add_prefix_space": true,
    "trim_offsets": false,
    "use_regex": true
  },
  "decoder": {
    "type": "ByteLevel",
    "add_prefix_space": true,
    "trim_offsets": true,
    "use_regex": true
  },
  "model": {
    "type": "BPE",
    "dropout": null,
    "unk_token": null,
    "continuing_subword_prefix": null,
    "end_of_word_suffix": null,
    "fuse_unk": false,
    "byte_fallback": false,
    "ignore_merges": false,
    "vocab": {
      "<s>": 0,
      "<pad>": 1,
      "</s>": 2,
      "<unk>": 3,
      "<mask,": 4,
      "!": 5,
      "\"": 6,
      "#": 7,
      "$": 8,
      "%": 9,
      "&": 10,
      "'": 11,
      "(": 12,
      ")": 13,
      "*": 14,
      "+": 15,
      ",": 16,
      "-": 17,
      ".": 18,
      "/": 19,
      "0": 20,
      "1": 21,
      "2": 22,
      "3": 23,
      "4": 24,
      "5": 25,
      "6": 26,
      "7": 27,
      "8": 28,
      "9": 29,
      ":": 30,
      ";": 31,
      "<": 32,
      "=": 33,
      ">": 34,
      "?": 35,
      "@": 36,
      "A": 37,
      "B": 38,
      "C": 39,
      "D": 40,
      "E": 41,
      "F": 42,
      "G": 43,
      "H": 44,
      "I": 45,
      "J": 46,
      "K": 47,
      "L": 48,
      "M": 49,
      "N": 50,
      "O": 51,
      "P": 52,
      "Q": 53,
      "R": 54,
      "S": 55,
      "T": 56,
      "U": 57,
      "V": 58,
      "W": 59,
      "X": 60,
      "Y": 61,
      "Z": 62,
      "[": 63,
      "\\": 64,
      "]": 65,
      "^": 66,
      "_": 67,
      "`": 68,
      "a": 69,
      "b": 70,
      "c": 71,
      "d": 72,
      "e": 73,
      "f": 74,
      "g": 75,
      "h": 76,
      "i": 77,
      "j": 78,
      "k": 79,
      "l": 80,
      "m": 81,
      "n": 82,
      "o": 83,
      "p": 84,
      "q": 85,
      "r": 86,
      "s": 87,
      "t": 88,
      "u": 89,
      "v": 90,
      "w": 91,
      "x": 92,
      "y": 93,
      "z": 94,
      "{": 95,
      "|": 96,
      "}": 97,
      "~": 98,
      "¡": 99,
      "¢": 100,
      "£": 101,
      "¤": 102,
      "¥": 103,
      "¦": 104,
      "§": 105,
      "¨": 106,
      "©": 107,
      "ª": 108,
      "«": 109,
      "¬": 110,
      "®": 111,
      "¯": 112,
      "°": 113,
      "±": 114,
      "²": 115,
      "³": 116,
      "´": 117,
      "µ": 118,
      "¶": 119,
      "·": 120,
      "¸": 121,
      "¹": 122,
      "º": 123,
      "»": 124,
      "¼": 125,
      "½": 126,
      "¾": 127,
      "¿": 128,
      "À": 129,
      "Á": 130,
      "Â": 131,
      "Ã": 132,
      "Ä": 133,
      "Å": 134,
      "Æ": 135,
      "Ç": 136,
      "È": 137,
      "É": 138,
      "Ê": 139,
      "Ë": 140,
      "Ì": 141,
      "Í": 142,
      "Î": 143,
      "Ï": 144,
      "Ð": 145,
      "Ñ": 146,
      "Ò": 147,
      "Ó": 148,
      "Ô": 149,
      "Õ": 150,
      "Ö": 151,
      "×": 152,
      "Ø": 153,
      "Ù": 154,
      "Ú": 155,
      "Û": 156,
      "Ü": 157,
      "Ý": 158,
      "Þ": 159,
      "ß": 160,
      "à": 161,
      "á": 162,
      "â": 163,
      "ã": 164,
      "ä": 165,
      "å": 166,
      "æ": 167,
      "ç": 168,
      "è": 169,
      "é": 170,
      "ê": 171,
      "ë": 172,
      "ì": 173,
      "í": 174,
      "î": 175,
      "ï": 176,
      "ð": 177,
      "ñ": 178,
      "ò": 179,
      "ó": 180,
      "ô": 181,
      "õ": 182,
      "ö": 183,
      "÷": 184,
      "ø": 185,
      "ù": 186,
      "ú": 187,
      "û": 188,
      "ü": 189,
      "ý": 190,
      "þ": 191,
      "ÿ": 192,
      "Ā": 193,
      "ā": 194,
      "Ă": 195,
      "ă": 196,
      "Ą": 197,
      "ą": 198,
      "Ć": 199,
      "ć": 200,
      "Ĉ": 201,
      "ĉ": 202,
      "Ċ": 203,
      "ċ": 204,
      "Č": 205,
      "č": 206,
      "Ď": 207,
      "ď": 208,
      "Đ": 209,
      "đ": 210,
      "Ē": 211,
      "ē": 212,
      "Ĕ": 213,
      "ĕ": 214,
      "Ė": 215,
      "ė": 216,
      "Ę": 217,
      "ę": 218,
      "Ě": 219,
      "ě": 220,
      "Ĝ": 221,
      "ĝ": 222,
      "Ğ": 223,
      "ğ": 224,
      "Ġ": 225,
      "ġ": 226,
      "Ģ": 227,
      "ģ": 228,
      "Ĥ": 229,
      "ĥ": 230,
      "Ħ": 231,
      "ħ": 232,
      "Ĩ": 233,
      "ĩ": 234,
      "Ī": 235,
      "ī": 236,
      "Ĭ": 237,
      "ĭ": 238,
      "Į": 239,
      "į": 240,
      "İ": 241,
      "ı": 242,
      "Ĳ": 243,
      "ĳ": 244,
      "Ĵ": 245,
      "ĵ": 246,
      "Ķ": 247,
      "ķ": 248,
      "ĸ": 249,
      "Ĺ": 250,
      "ĺ": 251,
      "Ļ": 252,
      "ļ": 253,
      "Ľ": 254,
      "ľ": 255,
      "Ŀ": 256,
      "ŀ": 257,
      "Ł": 258,
      "ł": 259,
      "Ń": 260,
      "on": 261,
      "ca": 262,
      "te": 263,
      "ti": 264,
      "ml": 265,
      "os": 266,
      "en": 267,
      "la": 268,
      "80": 269,
      "li": 270,
      "in": 271,
      "tion": 272,
      "ag": 273,
      "Con": 274,
      "cc": 275,
      "ch": 276,
      "ost": 277,
      "HT": 278,
      "che": 279,
      "pt": 280,
      "co": 281,
      "zi": 282,
      "ht": 283,
      "ept": 284,
      "Acc": 285,
      "Accept": 286,
      "xt": 287,
      "xml": 288,
      "text": 289,
      "ro": 290,
      "ec": 291,
      "de": 292,
      "lo": 293,
      "ap": 294,
      "lica": 295,
      "app": 296,
      "lication": 297,
      "application": 298,
      "no": 299,
      "se": 300,
      "ar": 301,
      "TP": 302,
      "ĠHT": 303,
      "ĠHTTP": 304,
      "cal": 305,
      "host": 306,
      "local": 307,
      "localhost": 308,
      "ng": 309,
      "Ġu": 310,
      "tf": 311,
      "age": 312,
      "def": 313,
      "late": 314,
      "cache": 315,
      "gzi": 316,
      "Ġ(": 317,
      "ĠK": 318,
      "Ġx": 319,
      "Ġno": 320,
      "Ġutf": 321,
      "deflate": 322,
      "gzip": 323,
      "8080": 324,
      "*;": 325,
      "html": 326,
      "da": 327,
      "nec": 328,
      "Connec": 329,
      "Connection": 330,
      "ie": 331,
      "tro": 332,
      "le": 333,
      "ma": 334,
      "pa": 335,
      "im": 336,
      "nt": 337,
      "ent": 338,
      "ue": 339,
      "ser": 340,
      "Ca": 341,
      "ror": 342,
      "lla": 343,
      "Host": 344,
      "Ġlocalhost": 345,
      "los": 346,
      "ok": 347,
      "ke": 348,
      "La": 349,
      "okie": 350,
      "com": 351,
      "Co": 352,
      "SE": 353,
      "que": 354,
      "ing": 355,
      "Mo": 356,
      "ko": 357,
      "png": 358,
      "image": 359,
      "rag": 360,
      "IO": 361,
      "ION": 362,
      "Ag": 363,
      "En": 364,
      "Ch": 365,
      "ble": 366,
      "tp": 367,
      "http": 368,
      "ID": 369,
      "SS": 370,
      "ux": 371,
      "arse": 372,
      "ngu": 373,
      "Lin": 374,
      ":/": 375,
      "ding": 376,
      "trol": 377,
      "://": 378,
      "pati": 379,
      "like": 380,
      "onque": 381,
      "lose": 382,
      "Gec": 383,
      "JSE": 384,
      "ML": 385,
      "Prag": 386,
      "User": 387,
      "close": 388,
      "Ġen": 389,
      "Ġdeflate": 390,
      "Ġgzip": 391,
      "Ġ*;": 392,
      "ĠMo": 393,
      "Ġhttp": 394,
      "ĠLin": 395,
      "ĠGec": 396,
      "ĠJSE": 397,
      "Ġclose": 398,
      "Control": 399,
      "HTML": 400,
      "coding": 401,
      "zilla": 402,
      "ĠKonque": 403,
      "ĠKHTML": 404,
      "Cache": 405,
      "Langu": 406,
      "compati": 407,
      "Cookie": 408,
      "IONID": 409,
      "Agent": 410,
      "Encoding": 411,
      "Charse": 412,
      "SSIONID": 413,
      "Pragma": 414,
      "ĠMozilla": 415,
      "ĠLinux": 416,
      "ĠGecko": 417,
      "ĠJSESSIONID": 418,
      "ĠKonqueror": 419,
      "Language": 420,
      "compatible": 421,
      "Charset": 422,
      "pla": 423,
      "*/": 424,
      ",*/": 425,
      "xhtml": 426,
      "Ġtext": 427,
      "plain": 428,
      ",*/*;": 429,
      "tien": 430,
      "tienda": 431,
      "tent": 432,
      "Content": 433,
      "re": 434,
      "sp": 435,
      "jsp": 436,
      "ET": 437,
      "GET": 438,
      "25": 439,
      "th": 440,
      "eng": 441,
      "Leng": 442,
      "Length": 443,
      "or": 444,
      "ww": 445,
      "ub": 446,
      "pub": 447,
      "lico": 448,
      "publico": 449,
      "ci": 450,
      "mb": 451,
      "gi": 452,
      "di": 453,
      "gis": 454,
      "27": 455,
      "rar": 456,
      "do": 457,
      "ri": 458,
      "40": 459,
      "ST": 460,
      "PO": 461,
      "POST": 462,
      "ur": 463,
      "pe": 464,
      "mo": 465,
      "modo": 466,
      "len": 467,
      "car": 468,
      "log": 469,
      "for": 470,
      "code": 471,
      "form": 472,
      "ype": 473,
      "urlen": 474,
      "Type": 475,
      "Ġapplication": 476,
      "ĠConnection": 477,
      "ĠContent": 478,
      "www": 479,
      "coded": 480,
      "urlencoded": 481,
      "er": 482,
      "an": 483,
      "login": 484,
      "dad": 485,
      "mbre": 486,
      "10": 487,
      "nombre": 488,
      "es": 489,
      "regis": 490,
      "registro": 491,
      "al": 492,
      "cia": 493,
      "29": 494,
      "ss": 495,
      "ros": 496,
      "el": 497,
      "63": 498,
      "rec": 499,
      "23": 500,
      "mie": 501,
      "io": 502,
      "mbros": 503,
      "miembros": 504,
      "17": 505,
      "15": 506,
      "pro": 507,
      "65": 508,
      "69": 509,
      "13": 510,
      "28": 511,
      "to": 512,
      "as": 513,
      "67": 514,
      "pass": 515,
      "47": 516,
      "il": 517,
      "19": 518,
      "22": 519,
      "43": 520,
      "85": 521,
      "id": 522,
      "45": 523,
      "60": 524,
      "ni": 525,
      "20": 526,
      "87": 527,
      "49": 528,
      "Re": 529,
      "ion": 530,
      "89": 531,
      "adi": 532,
      "enes": 533,
      "83": 534,
      "agenes": 535,
      "imagenes": 536,
      "lid": 537,
      "tar": 538,
      "vin": 539,
      "passw": 540,
      "nti": 541,
      "udad": 542,
      "adir": 543,
      "ema": 544,
      "ccion": 545,
      "ord": 546,
      "ED": 547,
      "ntc": 548,
      "cp": 549,
      "apel": 550,
      "provin": 551,
      "password": 552,
      "dni": 553,
      "prec": 554,
      "reccion": 555,
      "ciudad": 556,
      "direccion": 557,
      "lidos": 558,
      "email": 559,
      "apellidos": 560,
      "provincia": 561,
      "precio": 562,
      "trar": 563,
      "Regis": 564,
      "Registrar": 565,
      "carri": 566,
      "carrito": 567,
      "EC": 568,
      "39": 569,
      "entrar": 570,
      "11": 571,
      "26": 572,
      "FA": 573,
      "09": 574,
      "FC": 575,
      "253": 576,
      "aci": 577,
      "48": 578,
      "BA": 579,
      "FD": 580,
      "ra": 581,
      "EA": 582,
      "41": 583,
      "BC": 584,
      "aciar": 585,
      "75": 586,
      "33": 587,
      "BD": 588,
      "46": 589,
      "21": 590,
      "73": 591,
      "70": 592,
      "au": 593,
      "55": 594,
      "79": 595,
      "61": 596,
      "68": 597,
      "FB": 598,
      "me": 599,
      "gif": 600,
      "FE": 601,
      "CD": 602,
      "AD": 603,
      "ac": 604,
      "30": 605,
      "18": 606,
      "59": 607,
      "50": 608,
      "44": 609,
      "BB": 610,
      "EE": 611,
      "CA": 612,
      "cas": 613,
      "FF": 614,
      "74": 615,
      "AA": 616,
      "ja": 617,
      "DD": 618,
      "CC": 619,
      "24": 620,
      "00": 621,
      "64": 622,
      "am": 623,
      "BE": 624,
      "Ġ/": 625,
      "88": 626,
      "edi": 627,
      "les": 628,
      "53": 629,
      "anadir": 630,
      "99": 631,
      "wd": 632,
      "aute": 633,
      "nticar": 634,
      "autenticar": 635,
      "agar": 636,
      "pwd": 637,
      "editar": 638,
      "66": 639,
      "mber": 640,
      "canti": 641,
      "77": 642,
      "cantidad": 643,
      "+&": 644,
      "reme": 645,
      "pagar": 646,
      "remember": 647,
      "Ent": 648,
      "bal": 649,
      "Entrar": 650,
      "inser": 651,
      "insertar": 652,
      "AC": 653,
      "sti": 654,
      "57": 655,
      "glo": 656,
      "error": 657,
      "global": 658,
      "EB": 659,
      "12": 660,
      "pg": 661,
      "jpg": 662,
      "256": 663,
      "14": 664,
      "DC": 665,
      "16": 666,
      "DA": 667,
      "03": 668,
      "teri": 669,
      "BF": 670,
      "EF": 671,
      "carac": 672,
      "caracteri": 673,
      "sticas": 674,
      "caracteristicas": 675,
      "vaciar": 676,
      "58": 677,
      "sg": 678,
      "78": 679,
      "Msg": 680,
      "errorMsg": 681,
      "90": 682,
      "93": 683,
      "cor": 684,
      "AB": 685,
      "tos": 686,
      "62": 687,
      "270": 688,
      "den": 689,
      "CF": 690,
      "DE": 691,
      "CE": 692,
      "tas": 693,
      "38": 694,
      "ir": 695,
      "34": 696,
      "05": 697,
      "Cre": 698,
      "AE": 699,
      "DB": 700,
      "Vaciar": 701,
      "dencia": 702,
      "72": 703,
      "CB": 704,
      "DF": 705,
      "incor": 706,
      "logo": 707,
      "Credencia": 708,
      "incorrec": 709,
      "Credenciales": 710,
      "AF": 711,
      "incorrectas": 712,
      "**": 713,
      "71": 714,
      "35": 715,
      "=%": 716,
      "st": 717,
      "42": 718,
      "mar": 719,
      "95": 720,
      "08": 721,
      "76": 722,
      "ad": 723,
      "go": 724,
      "81": 725,
      "37": 726,
      "--": 727,
      "32": 728,
      "86": 729,
      "84": 730,
      "ler": 731,
      "252": 732,
      "arch": 733,
      "+%": 734,
      "lle": 735,
      "82": 736,
      "of": 737,
      "56": 738,
      "men": 739,
      "31": 740,
      "97": 741,
      "07": 742,
      "search": 743,
      "so": 744,
      "sa": 745,
      "36": 746,
      "250": 747,
      "sc": 748,
      "54": 749,
      "01": 750,
      "aler": 751,
      "Pas": 752,
      "alert": 753,
      "96": 754,
      "51": 755,
      "ta": 756,
      "Calle": 757,
      "du": 758,
      "por": 759,
      "06": 760,
      "98": 761,
      "fir": 762,
      "Confir": 763,
      "Confirmar": 764,
      "91": 765,
      "94": 766,
      "off": 767,
      "inde": 768,
      "52": 769,
      "index": 770,
      "Pasar": 771,
      "caja": 772,
      "04": 773,
      "92": 774,
      "ript": 775,
      "02": 776,
      "et": 777,
      "2563": 778,
      "ino": 779,
      "ia": 780,
      "100": 781,
      "Rio": 782,
      "De": 783,
      "aros": 784,
      "Man": 785,
      "duc": 786,
      "produc": 787,
      "ul": 788,
      "Rioja": 789,
      "um": 790,
      "na": 791,
      "za": 792,
      "2574": 793,
      "Que": 794,
      "script": 795,
      "chego": 796,
      "Manchego": 797,
      "va": 798,
      "Vino": 799,
      "ide": 800,
      "min": 801,
      "ai": 802,
      "Al": 803,
      "Sa": 804,
      "Queso": 805,
      "fo": 806,
      "ba": 807,
      "Ġ2": 808,
      "tu": 809,
      "Ib": 810,
      "rico": 811,
      "vi": 812,
      "Ġuser": 813,
      "Jam": 814,
      "cookie": 815,
      "--%": 816,
      "per": 817,
      "zar": 818,
      "asf": 819,
      "wide": 820,
      "ona": 821,
      "admin": 822,
      "og": 823,
      "2529": 824,
      "2569": 825,
      "2565": 826,
      "stra": 827,
      "un": 828,
      "bo": 829,
      "man": 830,
      "dela": 831,
      "=<": 832,
      "erra": 833,
      "RO": 834,
      "ono": 835,
      "SC": 836,
      "del": 837,
      "IP": 838,
      "Vi": 839,
      "SCR": 840,
      "IPT": 841,
      "ol": 842,
      "nue": 843,
      "cre": 844,
      "ada": 845,
      "ru": 846,
      "110": 847,
      "Paros": 848,
      "ran": 849,
      "ce": 850,
      "090": 851,
      "2522": 852,
      "wai": 853,
      "tfor": 854,
      "Tam": 855,
      "ga": 856,
      "esti": 857,
      "ts": 858,
      "123": 859,
      "Ġ33": 860,
      "Bwai": 861,
      "css": 862,
      "delay": 863,
      "Bwaitfor": 864,
      "sali": 865,
      "estilos": 866,
      "fotos": 867,
      "idA": 868,
      "Set": 869,
      "bul": 870,
      "credi": 871,
      "tierra": 872,
      "titu": 873,
      "BTam": 874,
      "auz": 875,
      "BTamper": 876,
      "salir": 877,
      "is": 878,
      "menum": 879,
      "Ġ17": 880,
      "creditos": 881,
      "titulo": 882,
      "castro": 883,
      "Ġ4": 884,
      "zarauz": 885,
      "ECT": 886,
      "productos": 887,
      "stratierra": 888,
      "nuestratierra": 889,
      "ogono": 890,
      "cmen": 891,
      "cmenbul": 892,
      "any": 893,
      "747": 894,
      "res": 895,
      "FRO": 896,
      "FROM": 897,
      "ne": 898,
      "San": 899,
      "Pa": 900,
      "Ar": 901,
      "amp": 902,
      "ASet": 903,
      "FN": 904,
      "613": 905,
      "jo": 906,
      "ve": 907,
      "Mar": 908,
      "ui": 909,
      "us": 910,
      "Bar": 911,
      "errorMsgA": 912,
      "='": 913,
      "ara": 914,
      "be": 915,
      "images": 916,
      "acke": 917,
      "OR": 918,
      "ll": 919,
      "2528": 920,
      "LECT": 921,
      "SELECT": 922,
      "637": 923,
      "=**": 924,
      "***": 925,
      "=*****": 926,
      "2561": 927,
      "290": 928,
      "ste": 929,
      "tor": 930,
      "mi": 931,
      "Car": 932,
      "products": 933,
      "CSCR": 934,
      "Ealert": 935,
      "Ġ34": 936,
      "235": 937,
      "ber": 938,
      "Va": 939,
      "ana": 940,
      "ex": 941,
      "Ġ28": 942,
      "Gu": 943,
      "4126": 944,
      "2527": 945,
      "paros": 946,
      "Ġ25": 947,
      "Ba": 948,
      "730": 949,
      "Ro": 950,
      "ig": 951,
      "ver": 952,
      "487": 953,
      "Sant": 954,
      "221": 955,
      "Ma": 956,
      "Se": 957,
      "lu": 958,
      "sh": 959,
      "Ġ11": 960,
      "40110": 961,
      "74727": 962,
      "104126": 963,
      "25374727": 964,
      "4011025374727": 965,
      "1041264011025374727": 966,
      "uen": 967,
      "fi": 968,
      "rc": 969,
      "Ġpass": 970,
      "2573": 971,
      "2570": 972,
      "uel": 973,
      "271": 974,
      "Ġ32": 975,
      "')": 976,
      "('": 977,
      "</": 978,
      "Hacke": 979,
      "')</": 980,
      "Hacked": 981,
      "ab": 982,
      "ora": 983,
      "ĠFROM": 984,
      "Ġusers": 985,
      "lencia": 986,
      "Le": 987,
      "Na": 988,
      "ina": 989,
      "lan": 990,
      "org": 991,
      "ria": 992,
      "src": 993,
      "'='": 994,
      "Ġ'": 995,
      "ĠOR": 996,
      "inc": 997,
      "eb": 998,
      "modoA": 999,
      "Pe": 1000,
      ")>": 1001,
      "Ġon": 1002,
      "Ġsrc": 1003,
      "img": 1004,
      "Ġonerror": 1005,
      "Val": 1006,
      "ya": 1007,
      "ER": 1008,
      "md": 1009,
      "cel": 1010,
      "Mon": 1011,
      ".+": 1012,
      "at": 1013,
      "si": 1014,
      "EDa": 1015,
      "130": 1016,
      "amples": 1017,
      "--&": 1018,
      "8789": 1019,
      "vas": 1020,
      "mp": 1021,
      "AN": 1022,
      "257": 1023,
      "lin": 1024,
      "ter": 1025,
      "Villa": 1026,
      "ida": 1027,
      "Ġ43": 1028,
      "Ġ38": 1029,
      "cmd": 1030,
      "Bur": 1031,
      "409": 1032,
      "bar": 1033,
      "191": 1034,
      "AND": 1035,
      "vo": 1036,
      "var": 1037,
      "uer": 1038,
      "rid": 1039,
      "HER": 1040,
      "HERE": 1041,
      "WHERE": 1042,
      "gos": 1043,
      "ago": 1044,
      "Ġ5": 1045,
      "2572": 1046,
      "190": 1047,
      "mer": 1048,
      "170": 1049,
      "der": 1050,
      "6136": 1051,
      "bac": 1052,
      "ld": 1053,
      "278789": 1054,
      "09030": 1055,
      "486136": 1056,
      "2529278789": 1057,
      "4861362529278789": 1058,
      "4861362529278789730": 1059,
      "63783": 1060,
      "6909030": 1061,
      "2563290": 1062,
      "637832563290": 1063,
      "6909030637832563290": 1064,
      "via": 1065,
      "133": 1066,
      "189": 1067,
      "263": 1068,
      "Tor": 1069,
      "ho": 1070,
      "celona": 1071,
      "443": 1072,
      "To": 1073,
      "doc": 1074,
      "Ġ26": 1075,
      "185": 1076,
      "it": 1077,
      "279": 1078,
      "IN": 1079,
      "precioA": 1080,
      "ier": 1081,
      "In": 1082,
      "des": 1083,
      "173": 1084,
      "103": 1085,
      "ka": 1086,
      "193": 1087,
      "129": 1088,
      "las": 1089,
      "275": 1090,
      "179": 1091,
      "Ġ18": 1092,
      "je": 1093,
      "183": 1094,
      "he": 1095,
      "und": 1096,
      "6520": 1097,
      "159": 1098,
      "650": 1099,
      "113": 1100,
      "llo": 1101,
      "105": 1102,
      "239": 1103,
      "469": 1104,
      "lia": 1105,
      "Burgos": 1106,
      "120": 1107,
      "660": 1108,
      "ha": 1109,
      "143": 1110,
      "108": 1111,
      "155": 1112,
      "470": 1113,
      "459": 1114,
      "273": 1115,
      "175": 1116,
      "178": 1117,
      "Sala": 1118,
      "243": 1119,
      "800": 1120,
      "639": 1121,
      "167": 1122,
      "hi": 1123,
      "109": 1124,
      "238": 1125,
      "/.": 1126,
      "140": 1127,
      "Del": 1128,
      "199": 1129,
      "bob": 1130,
      "230": 1131,
      "ge": 1132,
      "165": 1133,
      "9090": 1134,
      "197": 1135,
      "cript": 1136,
      "qu": 1137,
      "xy": 1138,
      "160": 1139,
      "Zar": 1140,
      "bi": 1141,
      "150": 1142,
      "468": 1143,
      "192": 1144,
      "293": 1145,
      "118": 1146,
      "649": 1147,
      "187": 1148,
      "Pl": 1149,
      "107": 1150,
      "ell": 1151,
      "ck": 1152,
      "240": 1153,
      "ipt": 1154,
      "153": 1155,
      "473": 1156,
      "Guada": 1157,
      "163": 1158,
      "265": 1159,
      "483": 1160,
      "439": 1161,
      "128": 1162,
      "Bo": 1163,
      "yle": 1164,
      "2567": 1165,
      "177": 1166,
      "scr": 1167,
      "mu": 1168,
      "450": 1169,
      "Fscr": 1170,
      "proxy": 1171,
      "CSCRipt": 1172,
      "parosproxy": 1173,
      "FscrIPT": 1174,
      "685": 1175,
      "sta": 1176,
      "name": 1177,
      "158": 1178,
      "5567": 1179,
      "135": 1180,
      "220": 1181,
      "620": 1182,
      "6235": 1183,
      "Ter": 1184,
      "zo": 1185,
      "PU": 1186,
      "gu": 1187,
      "23487": 1188,
      "157": 1189,
      "139": 1190,
      "453": 1191,
      "PUT": 1192,
      "FSCR": 1193,
      "CSCRIPT": 1194,
      "FSCRIPT": 1195,
      "Ju": 1196,
      "576520": 1197,
      "556723487": 1198,
      "576520556723487": 1199,
      "5765205567234876235": 1200,
      "ren": 1201,
      "tes": 1202,
      "457": 1203,
      "+--%": 1204,
      "480": 1205,
      "Lu": 1206,
      "299": 1207,
      "489": 1208,
      "127": 1209,
      "169": 1210,
      "kg": 1211,
      "180": 1212,
      "247": 1213,
      "679": 1214,
      "493": 1215,
      "2520": 1216,
      "233": 1217,
      "490": 1218,
      "147": 1219,
      "Ra": 1220,
      "400": 1221,
      "Po": 1222,
      "jara": 1223,
      "403": 1224,
      "485": 1225,
      "po": 1226,
      "277": 1227,
      "289": 1228,
      "agoza": 1229,
      "manca": 1230,
      "673": 1231,
      "463": 1232,
      "AR": 1233,
      "cgi": 1234,
      "458": 1235,
      "600": 1236,
      "495": 1237,
      "ument": 1238,
      "document": 1239,
      "osa": 1240,
      "Barcelona": 1241,
      "213": 1242,
      "ven": 1243,
      "style": 1244,
      "Salamanca": 1245,
      "237": 1246,
      "497": 1247,
      "BEA": 1248,
      "ari": 1249,
      "106": 1250,
      "499": 1251,
      "lajara": 1252,
      "236": 1253,
      "154": 1254,
      "Pla": 1255,
      "con": 1256,
      "fa": 1257,
      "259": 1258,
      "285": 1259,
      "670": 1260,
      "javas": 1261,
      "Guadalajara": 1262,
      "195": 1263,
      "200": 1264,
      "Ġ67": 1265,
      "Ġ74": 1266,
      "405": 1267,
      "659": 1268,
      "687": 1269,
      "689": 1270,
      "683": 1271,
      "Mad": 1272,
      "805": 1273,
      "288": 1274,
      "El": 1275,
      "2575": 1276,
      "269": 1277,
      "Aur": 1278,
      "Aalert": 1279,
      "round": 1280,
      "backg": 1281,
      "javascript": 1282,
      "Aurl": 1283,
      "background": 1284,
      "125": 1285,
      "643": 1286,
      "user": 1287,
      "cha": 1288,
      "609": 1289,
      "Zaragoza": 1290,
      "Santa": 1291,
      "803": 1292,
      "Cor": 1293,
      "447": 1294,
      "BBA": 1295,
      "12312": 1296,
      "cio": 1297,
      "455": 1298,
      "ECA": 1299,
      "420": 1300,
      "cu": 1301,
      "yo": 1302,
      "630": 1303,
      "ionid": 1304,
      "12312312": 1305,
      "username": 1306,
      "pi": 1307,
      "lar": 1308,
      "2564": 1309,
      "217": 1310,
      "Ri": 1311,
      "138": 1312,
      "198": 1313,
      "FFC": 1314,
      "298": 1315,
      "278": 1316,
      "418": 1317,
      "BCD": 1318,
      "CED": 1319,
      "255": 1320,
      "era": 1321,
      "870": 1322,
      "DEA": 1323,
      "EFA": 1324,
      "297": 1325,
      "AAD": 1326,
      "FH": 1327,
      "UN": 1328,
      "vila": 1329,
      "FFA": 1330,
      "2568": 1331,
      "610": 1332,
      "EFD": 1333,
      "ĠSELECT": 1334,
      "268": 1335,
      "UNION": 1336,
      "445": 1337,
      "EX": 1338,
      "ras": 1339,
      "nombreA": 1340,
      "EED": 1341,
      "152": 1342,
      "690": 1343,
      "283": 1344,
      "EXEC": 1345,
      "156": 1346,
      "437": 1347,
      "ECD": 1348,
      "698": 1349,
      "488": 1350,
      "121": 1351,
      "bu": 1352,
      "809": 1353,
      "137": 1354,
      "FCD": 1355,
      "242": 1356,
      "asp": 1357,
      "ard": 1358,
      "196": 1359,
      "267": 1360,
      "ls": 1361,
      "421": 1362,
      "DED": 1363,
      "699": 1364,
      "850": 1365,
      "CEA": 1366,
      "653": 1367,
      "697": 1368,
      "477": 1369,
      "430": 1370,
      "603": 1371,
      "EEA": 1372,
      "mon": 1373,
      "loginA": 1374,
      "old": 1375,
      "899": 1376,
      "119": 1377,
      "Ber": 1378,
      "OL": 1379,
      "Ġ45": 1380,
      "BCA": 1381,
      "464": 1382,
      "CAD": 1383,
      "Tar": 1384,
      "tra": 1385,
      "145": 1386,
      "Zam": 1387,
      "Ġ#": 1388,
      "Ġ--": 1389,
      "136": 1390,
      "Palencia": 1391,
      "410": 1392,
      "An": 1393,
      "BED": 1394,
      "093": 1395,
      "FDA": 1396,
      "CCD": 1397,
      "ura": 1398,
      "478": 1399,
      "BAB": 1400,
      "BDE": 1401,
      "875": 1402,
      "416": 1403,
      "188": 1404,
      "Gir": 1405,
      "Ġ71": 1406,
      "245": 1407,
      "607": 1408,
      "839": 1409,
      "117": 1410,
      "Ja": 1411,
      "287": 1412,
      "BAD": 1413,
      "FBE": 1414,
      "122": 1415,
      "CFA": 1416,
      "693": 1417,
      "890": 1418,
      "BFA": 1419,
      "ssionid": 1420,
      "657": 1421,
      "475": 1422,
      "423": 1423,
      "sca": 1424,
      "FDF": 1425,
      "Madrid": 1426,
      "433": 1427,
      "112": 1428,
      "Valencia": 1429,
      "258": 1430,
      "295": 1431,
      "638": 1432,
      "Zamora": 1433,
      "667": 1434,
      "BDB": 1435,
      "Teruel": 1436,
      "Li": 1437,
      "Ġ*": 1438,
      "Ġ=": 1439,
      "Ġid": 1440,
      "ĠWHERE": 1441,
      "859": 1442,
      "FCB": 1443,
      "BAA": 1444,
      "467": 1445,
      "194": 1446,
      "605": 1447,
      "280": 1448,
      "779": 1449,
      "BCC": 1450,
      "635": 1451,
      "209": 1452,
      "249": 1453,
      "fe": 1454,
      "608": 1455,
      "688": 1456,
      "AEA": 1457,
      "BCF": 1458,
      "BDC": 1459,
      "FBB": 1460,
      "llado": 1461,
      "151": 1462,
      "655": 1463,
      "134": 1464,
      "835": 1465,
      "686": 1466,
      "227": 1467,
      "AED": 1468,
      "ACD": 1469,
      "dor": 1470,
      "gar": 1471,
      "873": 1472,
      "879": 1473,
      "855": 1474,
      "Ġ75": 1475,
      "877": 1476,
      "390": 1477,
      "EEF": 1478,
      "AFA": 1479,
      "CEC": 1480,
      "ena": 1481,
      "408": 1482,
      "292": 1483,
      "893": 1484,
      "FDD": 1485,
      "449": 1486,
      "EEC": 1487,
      "FED": 1488,
      "176": 1489,
      "FEC": 1490,
      "dra": 1491,
      "Ġ68": 1492,
      "618": 1493,
      "FEB": 1494,
      "DCD": 1495,
      "438": 1496,
      "FCF": 1497,
      "218": 1498,
      "tr": 1499,
      "174": 1500,
      "830": 1501,
      "FEF": 1502,
      "Old": 1503,
      "ju": 1504,
      "uri": 1505,
      "286": 1506,
      "479": 1507,
      "857": 1508,
      "484": 1509,
      "579": 1510,
      "Pi": 1511,
      "qui": 1512,
      "BCE": 1513,
      "BDD": 1514,
      "Lle": 1515,
      "Or": 1516,
      "sessionid": 1517,
      "EDn": 1518,
      "435": 1519,
      "853": 1520,
      "203": 1521,
      "486": 1522,
      "759": 1523,
      "FBF": 1524,
      "407": 1525,
      "837": 1526,
      "FCC": 1527,
      "BBE": 1528,
      "FEA": 1529,
      "111": 1530,
      "Navar": 1531,
      "FG": 1532,
      "cat": 1533,
      "104": 1534,
      "833": 1535,
      "FCA": 1536,
      "FDC": 1537,
      "DFA": 1538,
      "bin": 1539,
      "ki": 1540,
      "ose": 1541,
      "658": 1542,
      "695": 1543,
      "498": 1544,
      "FEE": 1545,
      "OLD": 1546,
      "055": 1547,
      "Ci": 1548,
      "807": 1549,
      "296": 1550,
      "BAE": 1551,
      "BEB": 1552,
      "146": 1553,
      "cho": 1554,
      "BAC": 1555,
      "+.": 1556,
      "Ga": 1557,
      "294": 1558,
      "897": 1559,
      "126": 1560,
      "ACA": 1561,
      "So": 1562,
      "nte": 1563,
      "EEE": 1564,
      "Be": 1565,
      "DAC": 1566,
      "Gran": 1567,
      "BDF": 1568,
      "govia": 1569,
      "Vallado": 1570,
      "uenca": 1571,
      "223": 1572,
      "tt": 1573,
      "895": 1574,
      "095": 1575,
      "210": 1576,
      "Te": 1577,
      "dro": 1578,
      "276": 1579,
      "116": 1580,
      "BEF": 1581,
      "Valladolid": 1582,
      "DCC": 1583,
      "web": 1584,
      "Ġ72": 1585,
      "FFF": 1586,
      "DAD": 1587,
      "oria": 1588,
      "BDA": 1589,
      "Segovia": 1590,
      "274": 1591,
      "java": 1592,
      "Cuenca": 1593,
      "DAA": 1594,
      "Fe": 1595,
      "496": 1596,
      "114": 1597,
      "BBF": 1598,
      "Lleida": 1599,
      "115": 1600,
      "hor": 1601,
      "ua": 1602,
      "ani": 1603,
      "FCE": 1604,
      "750": 1605,
      "758": 1606,
      "Cas": 1607,
      "633": 1608,
      "677": 1609,
      "FDB": 1610,
      "uela": 1611,
      "BAF": 1612,
      "BCB": 1613,
      "614": 1614,
      "ley": 1615,
      "172": 1616,
      "132": 1617,
      "226": 1618,
      "Navarra": 1619,
      "654": 1620,
      "739": 1621,
      "BEC": 1622,
      "808": 1623,
      "414": 1624,
      "ly": 1625,
      "234": 1626,
      "700": 1627,
      "260": 1628,
      "616": 1629,
      "CDA": 1630,
      "355": 1631,
      "AEC": 1632,
      "CCA": 1633,
      "DCA": 1634,
      "406": 1635,
      "446": 1636,
      "gen": 1637,
      "ves": 1638,
      "272": 1639,
      "205": 1640,
      "208": 1641,
      "Ġ3": 1642,
      "Caste": 1643,
      "131": 1644,
      "Girona": 1645,
      "248": 1646,
      "cf": 1647,
      "858": 1648,
      "BBB": 1649,
      "291": 1650,
      "EDC": 1651,
      "503": 1652,
      "254": 1653,
      "Inc": 1654,
      "AM": 1655,
      "Do": 1656,
      "ns": 1657,
      "aga": 1658,
      "442": 1659,
      "gra": 1660,
      "Ġ61": 1661,
      "171": 1662,
      "207": 1663,
      "500": 1664,
      "636": 1665,
      "675": 1666,
      "184": 1667,
      "Carre": 1668,
      "rio": 1669,
      "656": 1670,
      "678": 1671,
      "494": 1672,
      "266": 1673,
      "AFB": 1674,
      "102": 1675,
      "703": 1676,
      "ACB": 1677,
      "ledo": 1678,
      "393": 1679,
      "753": 1680,
      "330": 1681,
      "335": 1682,
      "ms": 1683,
      "694": 1684,
      "878": 1685,
      "EDF": 1686,
      "124": 1687,
      "228": 1688,
      "Toledo": 1689,
      "696": 1690,
      "481": 1691,
      "466": 1692,
      "bak": 1693,
      "ner": 1694,
      "898": 1695,
      "838": 1696,
      "EDB": 1697,
      "264": 1698,
      "757": 1699,
      "Ġ62": 1700,
      "216": 1701,
      "EEB": 1702,
      "CCB": 1703,
      "162": 1704,
      "lio": 1705,
      "ine": 1706,
      "168": 1707,
      "225": 1708,
      "709": 1709,
      "Mi": 1710,
      "436": 1711,
      "456": 1712,
      "705": 1713,
      "CBC": 1714,
      "rie": 1715,
      "ess": 1716,
      "212": 1717,
      "Bak": 1718,
      "EFC": 1719,
      "Par": 1720,
      "2540": 1721,
      "417": 1722,
      "EBC": 1723,
      "222": 1724,
      "755": 1725,
      "707": 1726,
      "149": 1727,
      "DBC": 1728,
      "EBE": 1729,
      "ente": 1730,
      "int": 1731,
      "FAA": 1732,
      "BAK": 1733,
      "EBF": 1734,
      "DEC": 1735,
      "ABC": 1736,
      "gue": 1737,
      "mc": 1738,
      "224": 1739,
      "337": 1740,
      "CBD": 1741,
      "don": 1742,
      "EAA": 1743,
      "804": 1744,
      "ares": 1745,
      "232": 1746,
      "141": 1747,
      "ry": 1748,
      "Ġ41": 1749,
      "FAB": 1750,
      "EAE": 1751,
      "505": 1752,
      "CCC": 1753,
      "*+": 1754,
      "148": 1755,
      "AFC": 1756,
      "DFC": 1757,
      "2500": 1758,
      "634": 1759,
      "Ġ39": 1760,
      "606": 1761,
      "FDE": 1762,
      "Ġ60": 1763,
      "ecre": 1764,
      "231": 1765,
      "452": 1766,
      "599": 1767,
      "AAF": 1768,
      "tin": 1769,
      "ragona": 1770,
      "illo": 1771,
      "FAC": 1772,
      "793": 1773,
      "PAR": 1774,
      "son": 1775,
      "284": 1776,
      "434": 1777,
      "EAB": 1778,
      "085": 1779,
      "CFC": 1780,
      "EBD": 1781,
      "806": 1782,
      "454": 1783,
      "395": 1784,
      "ceres": 1785,
      "229": 1786,
      "JECT": 1787,
      "sch": 1788,
      "872": 1789,
      "333": 1790,
      "593": 1791,
      "INJECT": 1792,
      "PARAM": 1793,
      "INJECTED": 1794,
      "161": 1795,
      "419": 1796,
      "FBC": 1797,
      "Gar": 1798,
      "EDE": 1799,
      "file": 1800,
      "Juan": 1801,
      "DBA": 1802,
      "DBD": 1803,
      "DBF": 1804,
      "LE": 1805,
      "281": 1806,
      "206": 1807,
      "896": 1808,
      "EAC": 1809,
      "Me": 1810,
      "ez": 1811,
      "186": 1812,
      "144": 1813,
      "377": 1814,
      "Av": 1815,
      "DFB": 1816,
      "fer": 1817,
      "Ġ44": 1818,
      "tel": 1819,
      "DDF": 1820,
      "219": 1821,
      "955": 1822,
      "Hue": 1823,
      "Soria": 1824,
      "ivo": 1825,
      "DDC": 1826,
      "166": 1827,
      "ECF": 1828,
      "261": 1829,
      "300": 1830,
      "BFF": 1831,
      "ut": 1832,
      "Ġ64": 1833,
      "604": 1834,
      "214": 1835,
      "DDD": 1836,
      "Tarragona": 1837,
      "CBB": 1838,
      "EBA": 1839,
      "Los": 1840,
      "rm": 1841,
      "let": 1842,
      "676": 1843,
      "FAD": 1844,
      "CDF": 1845,
      "ABA": 1846,
      "CFD": 1847,
      "EFF": 1848,
      "Ġ59": 1849,
      "Camp": 1850,
      "404": 1851,
      "491": 1852,
      "836": 1853,
      "182": 1854,
      "ABD": 1855,
      "FFD": 1856,
      "secre": 1857,
      "van": 1858,
      "EDA": 1859,
      "CAB": 1860,
      "CAE": 1861,
      "Ur": 1862,
      "4040": 1863,
      "674": 1864,
      "876": 1865,
      "338": 1866,
      "142": 1867,
      "archivo": 1868,
      "joz": 1869,
      "AFD": 1870,
      "CBE": 1871,
      "DFF": 1872,
      "EFE": 1873,
      "FBA": 1874,
      "villa": 1875,
      "usu": 1876,
      "AFE": 1877,
      "Bada": 1878,
      "all": 1879,
      "692": 1880,
      "681": 1881,
      "303": 1882,
      "INC": 1883,
      "164": 1884,
      "585": 1885,
      "715": 1886,
      "BBD": 1887,
      "ton": 1888,
      "licante": 1889,
      "892": 1890,
      "738": 1891,
      "799": 1892,
      "783": 1893,
      "ces": 1894,
      "Ġ63": 1895,
      "CDB": 1896,
      "wa": 1897,
      "801": 1898,
      "492": 1899,
      "FAF": 1900,
      "ADC": 1901,
      "444": 1902,
      "538": 1903,
      "063": 1904,
      "AEB": 1905,
      "BBC": 1906,
      "BFE": 1907,
      "Es": 1908,
      "101": 1909,
      "476": 1910,
      "FAE": 1911,
      "CDC": 1912,
      "087": 1913,
      "Ce": 1914,
      "ron": 1915,
      "loca": 1916,
      "691": 1917,
      "ECB": 1918,
      "ECC": 1919,
      "399": 1920,
      "482": 1921,
      "790": 1922,
      "AAA": 1923,
      "888": 1924,
      "ACE": 1925,
      "ABLE": 1926,
      "FBD": 1927,
      "EAD": 1928,
      "412": 1929,
      "795": 1930,
      "Badajoz": 1931,
      "+*+": 1932,
      "DRO": 1933,
      "Fer": 1934,
      "IK": 1935,
      "LIK": 1936,
      "Ne": 1937,
      "TABLE": 1938,
      "datos": 1939,
      "652": 1940,
      "204": 1941,
      "894": 1942,
      "ECE": 1943,
      "arios": 1944,
      "usuarios": 1945,
      "DROP": 1946,
      "LIKE": 1947,
      "ABF": 1948,
      "san": 1949,
      "art": 1950,
      "307": 1951,
      "598": 1952,
      "AAE": 1953,
      "777": 1954,
      "DFE": 1955,
      "DBB": 1956,
      "DEB": 1957,
      "672": 1958,
      "CCE": 1959,
      "339": 1960,
      "909": 1961,
      "AEE": 1962,
      "bre": 1963,
      "402": 1964,
      "ADE": 1965,
      "DCB": 1966,
      "Plza": 1967,
      "Alicante": 1968,
      "CEF": 1969,
      "Fh": 1970,
      "ene": 1971,
      "401": 1972,
      "471": 1973,
      "EDD": 1974,
      "ACF": 1975,
      "578": 1976,
      "631": 1977,
      "737": 1978,
      "612": 1979,
      "595": 1980,
      "CAA": 1981,
      "900": 1982,
      "BEE": 1983,
      "CBA": 1984,
      "rf": 1985,
      "601": 1986,
      "DAE": 1987,
      "DAF": 1988,
      "ador": 1989,
      "Qu": 1990,
      "797": 1991,
      "ADB": 1992,
      "+-": 1993,
      "375": 1994,
      "AFF": 1995,
      "CFB": 1996,
      "DFD": 1997,
      "cos": 1998,
      "Cam": 1999,
      "262": 2000,
      "ami": 2001,
      "lude": 2002,
      "include": 2003,
      "secreto": 2004,
      "CBF": 2005,
      "Ġ46": 2006,
      "ini": 2007,
      "602": 2008,
      "891": 2009,
      "EAF": 2010,
      "CAF": 2011,
      "665": 2012,
      "Bcat": 2013,
      "CFE": 2014,
      "Fpassw": 2015,
      "Fet": 2016,
      "No": 2017,
      "Can": 2018,
      "451": 2019,
      "ADD": 2020,
      "005": 2021,
      "DAB": 2022,
      "ruz": 2023,
      "acker": 2024,
      "exec": 2025,
      "Huesca": 2026,
      "Fpasswd": 2027,
      "Fetc": 2028,
      "/_": 2029,
      "817": 2030,
      "EFB": 2031,
      "sen": 2032,
      "461": 2033,
      "684": 2034,
      "Granada": 2035,
      "615": 2036,
      "787": 2037,
      "983": 2038,
      "DEF": 2039,
      "EBB": 2040,
      "FFE": 2041,
      "chi": 2042,
      "Cant": 2043,
      "632": 2044,
      "559": 2045,
      "509": 2046,
      "BFC": 2047,
      "DEE": 2048,
      "537": 2049,
      "Bstyle": 2050,
      "CFF": 2051,
      "yu": 2052,
      "282": 2053,
      "037": 2054,
      "Torre": 2055,
      "317": 2056,
      "441": 2057,
      "885": 2058,
      "ACC": 2059,
      "Ta": 2060,
      "735": 2061,
      "ADF": 2062,
      "CAC": 2063,
      "415": 2064,
      "CEE": 2065,
      "251": 2066,
      "882": 2067,
      "778": 2068,
      "315": 2069,
      "535": 2070,
      "038": 2071,
      "413": 2072,
      "930": 2073,
      "ABB": 2074,
      "Cscript": 2075,
      "Edocument": 2076,
      "Fscript": 2077,
      "Fcookie": 2078,
      "Fcgi": 2079,
      "sk": 2080,
      "tal": 2081,
      "ample": 2082,
      "steal": 2083,
      "example": 2084,
      "location": 2085,
      "Fhacker": 2086,
      "Fcookiesteal": 2087,
      "009": 2088,
      "959": 2089,
      "BFD": 2090,
      "BFB": 2091,
      "jar": 2092,
      "397": 2093,
      "CDE": 2094,
      "DDE": 2095,
      "993": 2096,
      "035": 2097,
      "429": 2098,
      "AEF": 2099,
      "dy": 2100,
      "lon": 2101,
      "dir": 2102,
      "550": 2103,
      "798": 2104,
      "AAB": 2105,
      "215": 2106,
      "465": 2107,
      "815": 2108,
      "Lo": 2109,
      "DDA": 2110,
      "DCE": 2111,
      "627": 2112,
      "FFB": 2113,
      "Go": 2114,
      "DDB": 2115,
      "ic": 2116,
      "671": 2117,
      "508": 2118,
      "AAC": 2119,
      "359": 2120,
      "ABE": 2121,
      "dre": 2122,
      "432": 2123,
      "398": 2124,
      "000": 2125,
      "874": 2126,
      "096": 2127,
      "507": 2128,
      "884": 2129,
      "DCF": 2130,
      "DBE": 2131,
      "her": 2132,
      "651": 2133,
      "431": 2134,
      "856": 2135,
      "506": 2136,
      "662": 2137,
      "666": 2138,
      "530": 2139,
      "by": 2140,
      "han": 2141,
      "ula": 2142,
      "2578": 2143,
      "ris": 2144,
      "CCF": 2145,
      "083": 2146,
      "775": 2147,
      "az": 2148,
      "ban": 2149,
      "bra": 2150,
      "731": 2151,
      "ete": 2152,
      "su": 2153,
      "802": 2154,
      "lina": 2155,
      "462": 2156,
      "736": 2157,
      "2562": 2158,
      "347": 2159,
      "569": 2160,
      "Sal": 2161,
      "586": 2162,
      "Vila": 2163,
      "horas": 2164,
      "Castell": 2165,
      "383": 2166,
      "760": 2167,
      "Her": 2168,
      "tre": 2169,
      "ure": 2170,
      "mas": 2171,
      "708": 2172,
      "557": 2173,
      "990": 2174,
      "iel": 2175,
      "532": 2176,
      "536": 2177,
      "Cer": 2178,
      "Er": 2179,
      "bel": 2180,
      "Ġ65": 2181,
      "ADA": 2182,
      "181": 2183,
      "327": 2184,
      "379": 2185,
      "528": 2186,
      "549": 2187,
      "975": 2188,
      "fre": 2189,
      "hu": 2190,
      "pwdA": 2191,
      "540": 2192,
      "628": 2193,
      "Jose": 2194,
      "llas": 2195,
      "871": 2196,
      "682": 2197,
      "023": 2198,
      "059": 2199,
      "523": 2200,
      "767": 2201,
      "820": 2202,
      "Fuen": 2203,
      "samples": 2204,
      "val": 2205,
      "rememberA": 2206,
      "422": 2207,
      "623": 2208,
      "913": 2209,
      "nan": 2210,
      "are": 2211,
      "dia": 2212,
      "CDD": 2213,
      "027": 2214,
      "028": 2215,
      "079": 2216,
      "309": 2217,
      "427": 2218,
      "580": 2219,
      "533": 2220,
      "br": 2221,
      "eni": 2222,
      "dio": 2223,
      "852": 2224,
      "EDo": 2225,
      "581": 2226,
      "020": 2227,
      "064": 2228,
      "460": 2229,
      "840": 2230,
      "tan": 2231,
      "tera": 2232,
      "756": 2233,
      "702": 2234,
      "539": 2235,
      "Gui": 2236,
      "Jo": 2237,
      "af": 2238,
      "bas": 2239,
      "gr": 2240,
      "mad": 2241,
      "732": 2242,
      "389": 2243,
      "587": 2244,
      "733": 2245,
      "827": 2246,
      "989": 2247,
      "Esp": 2248,
      "ric": 2249,
      "056": 2250,
      "515": 2251,
      "669": 2252,
      "647": 2253,
      "ger": 2254,
      "Ġ70": 2255,
      "lor": 2256,
      "997": 2257,
      "428": 2258,
      "645": 2259,
      "828": 2260,
      "Gi": 2261,
      "Coru": 2262,
      "033": 2263,
      "527": 2264,
      "617": 2265,
      "789": 2266,
      "910": 2267,
      "915": 2268,
      "Por": 2269,
      "ug": 2270,
      "abria": 2271,
      "047": 2272,
      "043": 2273,
      "583": 2274,
      "717": 2275,
      "CEB": 2276,
      "Da": 2277,
      "367": 2278,
      "577": 2279,
      "769": 2280,
      "Fran": 2281,
      "ye": 2282,
      "Cal": 2283,
      "752": 2284,
      "906": 2285,
      "039": 2286,
      "323": 2287,
      "388": 2288,
      "863": 2289,
      "Ve": 2290,
      "ira": 2291,
      "642": 2292,
      "examples": 2293,
      "570": 2294,
      "780": 2295,
      "810": 2296,
      "811": 2297,
      "979": 2298,
      "jan": 2299,
      "092": 2300,
      "576": 2301,
      "619": 2302,
      "770": 2303,
      "060": 2304,
      "370": 2305,
      "529": 2306,
      "723": 2307,
      "766": 2308,
      "843": 2309,
      "Pon": 2310,
      "ling": 2311,
      "099": 2312,
      "513": 2313,
      "854": 2314,
      "534": 2315,
      "069": 2316,
      "013": 2317,
      "350": 2318,
      "745": 2319,
      "883": 2320,
      "Fa": 2321,
      "Mer": 2322,
      "bro": 2323,
      "tz": 2324,
      "740": 2325,
      "Tra": 2326,
      "sco": 2327,
      "dan": 2328,
      "999": 2329,
      "582": 2330,
      "030": 2331,
      "349": 2332,
      "663": 2333,
      "933": 2334,
      "LET": 2335,
      "Las": 2336,
      "SER": 2337,
      "202": 2338,
      "Real": 2339,
      "392": 2340,
      "556": 2341,
      "cantidadA": 2342,
      "089": 2343,
      "547": 2344,
      "543": 2345,
      "725": 2346,
      "713": 2347,
      "813": 2348,
      "847": 2349,
      "Il": 2350,
      "cl": 2351,
      "ud": 2352,
      "851": 2353,
      "053": 2354,
      "917": 2355,
      "Ale": 2356,
      "Ant": 2357,
      "Ast": 2358,
      "USER": 2359,
      "oso": 2360,
      "098": 2361,
      "734": 2362,
      "003": 2363,
      "DELET": 2364,
      "USERS": 2365,
      "DELETE": 2366,
      "328": 2367,
      "318": 2368,
      "965": 2369,
      "967": 2370,
      "ctor": 2371,
      "ero": 2372,
      "590": 2373,
      "782": 2374,
      "Ġ248": 2375,
      "365": 2376,
      "426": 2377,
      "567": 2378,
      "720": 2379,
      "cn": 2380,
      "vel": 2381,
      "zan": 2382,
      "306": 2383,
      "786": 2384,
      "Ciudad": 2385,
      "077": 2386,
      "343": 2387,
      "575": 2388,
      "880": 2389,
      "960": 2390,
      "uren": 2391,
      "010": 2392,
      "045": 2393,
      "070": 2394,
      "825": 2395,
      "867": 2396,
      "969": 2397,
      "950": 2398,
      "sy": 2399,
      "881": 2400,
      "886": 2401,
      "729": 2402,
      "718": 2403,
      "Ser": 2404,
      "pp": 2405,
      "sd": 2406,
      "572": 2407,
      "322": 2408,
      "545": 2409,
      "680": 2410,
      "719": 2411,
      "mil": 2412,
      "samp": 2413,
      "vio": 2414,
      "ntcA": 2415,
      "301": 2416,
      "908": 2417,
      "Plaza": 2418,
      "Carrer": 2419,
      "387": 2420,
      "440": 2421,
      "640": 2422,
      "Di": 2423,
      "ano": 2424,
      "ff": 2425,
      "Ġ66": 2426,
      "htm": 2427,
      "*%": 2428,
      "029": 2429,
      "560": 2430,
      "765": 2431,
      "927": 2432,
      "940": 2433,
      "919": 2434,
      "970": 2435,
      "fran": 2436,
      "831": 2437,
      "cpA": 2438,
      "emailA": 2439,
      "040": 2440,
      "073": 2441,
      "380": 2442,
      "425": 2443,
      "519": 2444,
      "819": 2445,
      "920": 2446,
      "553": 2447,
      "791": 2448,
      "ierra": 2449,
      "066": 2450,
      "563": 2451,
      "573": 2452,
      "860": 2453,
      "985": 2454,
      "istra": 2455,
      "Ġ58": 2456,
      "pan": 2457,
      "dniA": 2458,
      "391": 2459,
      "015": 2460,
      "211": 2461,
      "320": 2462,
      "358": 2463,
      "773": 2464,
      "845": 2465,
      "889": 2466,
      "929": 2467,
      "Llo": 2468,
      "mor": 2469,
      "doba": 2470,
      "Almer": 2471,
      "080": 2472,
      "050": 2473,
      "325": 2474,
      "310": 2475,
      "411": 2476,
      "514": 2477,
      "611": 2478,
      "887": 2479,
      "IDE": 2480,
      "ubi": 2481,
      "832": 2482,
      "direccionA": 2483,
      "apellidosA": 2484,
      "CFIDE": 2485,
      "administra": 2486,
      "cfm": 2487,
      "Cantabria": 2488,
      "administrator": 2489,
      "075": 2490,
      "241": 2491,
      "622": 2492,
      "621": 2493,
      "727": 2494,
      "sal": 2495,
      "laga": 2496,
      "llar": 2497,
      "094": 2498,
      "acion": 2499,
      "555": 2500,
      "007": 2501,
      "junt": 2502,
      "065": 2503,
      "319": 2504,
      "510": 2505,
      "785": 2506,
      "861": 2507,
      "980": 2508,
      "963": 2509,
      "Ab": 2510,
      "Pin": 2511,
      "gan": 2512,
      "ix": 2513,
      "we": 2514,
      "Ġ250": 2515,
      "can": 2516,
      "472": 2517,
      "passwordA": 2518,
      "369": 2519,
      "361": 2520,
      "374": 2521,
      "520": 2522,
      "728": 2523,
      "849": 2524,
      "903": 2525,
      "776": 2526,
      "246": 2527,
      "385": 2528,
      "517": 2529,
      "589": 2530,
      "544": 2531,
      "823": 2532,
      "dr": 2533,
      "Ġ252": 2534,
      "oni": 2535,
      "474": 2536,
      "ciudadA": 2537,
      "017": 2538,
      "078": 2539,
      "378": 2540,
      "764": 2541,
      "939": 2542,
      "my": 2543,
      "lie": 2544,
      "097": 2545,
      "ament": 2546,
      "772": 2547,
      "082": 2548,
      "710": 2549,
      "958": 2550,
      "Fon": 2551,
      "par": 2552,
      "001": 2553,
      "amon": 2554,
      "345": 2555,
      "344": 2556,
      "646": 2557,
      "928": 2558,
      "Ni": 2559,
      "ker": 2560,
      "305": 2561,
      "Ġ247": 2562,
      "juntament": 2563,
      "363": 2564,
      "949": 2565,
      "911": 2566,
      "Vir": 2567,
      "bla": 2568,
      "iro": 2569,
      "sto": 2570,
      "lis": 2571,
      "chez": 2572,
      "ento": 2573,
      "834": 2574,
      "provinciaA": 2575,
      "571": 2576,
      "nsf": 2577,
      "329": 2578,
      "313": 2579,
      "312": 2580,
      "629": 2581,
      "648": 2582,
      "711": 2583,
      "821": 2584,
      "987": 2585,
      "Cruz": 2586,
      "dri": 2587,
      "Ġ73": 2588,
      "nto": 2589,
      "386": 2590,
      "340": 2591,
      "722": 2592,
      "848": 2593,
      "846": 2594,
      "943": 2595,
      "Ouren": 2596,
      "Web": 2597,
      "bur": 2598,
      "net": 2599,
      "riz": 2600,
      "754": 2601,
      "331": 2602,
      "794": 2603,
      "urias": 2604,
      "Ourense": 2605,
      "088": 2606,
      "565": 2607,
      "749": 2608,
      "923": 2609,
      "Casti": 2610,
      "336": 2611,
      "058": 2612,
      "348": 2613,
      "373": 2614,
      "721": 2615,
      "865": 2616,
      "947": 2617,
      "977": 2618,
      "mel": 2619,
      "201": 2620,
      "332": 2621,
      "531": 2622,
      "Ġ251": 2623,
      "025": 2624,
      "625": 2625,
      "829": 2626,
      "978": 2627,
      "Aven": 2628,
      "Gra": 2629,
      "ajuntament": 2630,
      "om": 2631,
      "yn": 2632,
      "coa": 2633,
      "ill": 2634,
      "304": 2635,
      "901": 2636,
      "067": 2637,
      "074": 2638,
      "324": 2639,
      "376": 2640,
      "748": 2641,
      "741": 2642,
      "vti": 2643,
      "Ġ69": 2644,
      "onio": 2645,
      "334": 2646,
      "004": 2647,
      "935": 2648,
      "356": 2649,
      "956": 2650,
      "Ġ259": 2651,
      "Asturias": 2652,
      "360": 2653,
      "511": 2654,
      "973": 2655,
      "Bu": 2656,
      "For": 2657,
      "Is": 2658,
      "od": 2659,
      "ws": 2660,
      "396": 2661,
      "Maria": 2662,
      "Avenida": 2663,
      "311": 2664,
      "564": 2665,
      "763": 2666,
      "743": 2667,
      "841": 2668,
      "916": 2669,
      "gas": 2670,
      "tri": 2671,
      "591": 2672,
      "931": 2673,
      "934": 2674,
      "Ġ257": 2675,
      "368": 2676,
      "869": 2677,
      "957": 2678,
      "gre": 2679,
      "gal": 2680,
      "jos": 2681,
      "mos": 2682,
      "op": 2683,
      "pre": 2684,
      "win": 2685,
      "751": 2686,
      "551": 2687,
      "302": 2688,
      "Albac": 2689,
      "Albacete": 2690,
      "048": 2691,
      "018": 2692,
      "014": 2693,
      "244": 2694,
      "548": 2695,
      "824": 2696,
      "941": 2697,
      "Mu": 2698,
      "Puer": 2699,
      "Ros": 2700,
      "eu": 2701,
      "gui": 2702,
      "cios": 2703,
      "512": 2704,
      "868": 2705,
      "945": 2706,
      "Mas": 2707,
      "dar": 2708,
      "kin": 2709,
      "wen": 2710,
      "mati": 2711,
      "594": 2712,
      "008": 2713,
      "bert": 2714,
      "353": 2715,
      "664": 2716,
      "826": 2717,
      "961": 2718,
      "924": 2719,
      "har": 2720,
      "one": 2721,
      "952": 2722,
      "049": 2723,
      "057": 2724,
      "371": 2725,
      "525": 2726,
      "546": 2727,
      "626": 2728,
      "822": 2729,
      "948": 2730,
      "953": 2731,
      "Per": 2732,
      "ty": 2733,
      "006": 2734,
      "Ġ260": 2735,
      "Ġ249": 2736,
      "026": 2737,
      "357": 2738,
      "712": 2739,
      "814": 2740,
      "Ġ253": 2741,
      "das": 2742,
      "597": 2743,
      "504": 2744,
      "034": 2745,
      "584": 2746,
      "938": 2747,
      "Ġ255": 2748,
      "526": 2749,
      "524": 2750,
      "661": 2751,
      "He": 2752,
      "ala": 2753,
      "gon": 2754,
      "gor": 2755,
      "ze": 2756,
      "dez": 2757,
      "rez": 2758,
      "704": 2759,
      "905": 2760,
      "Ġ258": 2761,
      "022": 2762,
      "016": 2763,
      "042": 2764,
      "316": 2765,
      "926": 2766,
      "918": 2767,
      "Cu": 2768,
      "Huel": 2769,
      "tur": 2770,
      "wor": 2771,
      "Ġ57": 2772,
      "Ġ256": 2773,
      "091": 2774,
      "701": 2775,
      "592": 2776,
      "Ques": 2777,
      "668": 2778,
      "774": 2779,
      "921": 2780,
      "968": 2781,
      "Flo": 2782,
      "ment": 2783,
      "tti": 2784,
      "char": 2785,
      "994": 2786,
      "954": 2787,
      "Ġ254": 2788,
      "321": 2789,
      "744": 2790,
      "Bor": 2791,
      "jas": 2792,
      "031": 2793,
      "032": 2794,
      "937": 2795,
      "mente": 2796,
      "Monte": 2797,
      "Huelva": 2798,
      "988": 2799,
      "976": 2800,
      "Bas": 2801,
      "Si": 2802,
      "bon": 2803,
      "far": 2804,
      "tw": 2805,
      "rell": 2806,
      "558": 2807,
      "792": 2808,
      "308": 2809,
      "501": 2810,
      "907": 2811,
      "384": 2812,
      "berg": 2813,
      "061": 2814,
      "562": 2815,
      "644": 2816,
      "844": 2817,
      "uda": 2818,
      "vie": 2819,
      "zca": 2820,
      "ten": 2821,
      "554": 2822,
      "771": 2823,
      "784": 2824,
      "352": 2825,
      "soy": 2826,
      "Sevilla": 2827,
      "346": 2828,
      "866": 2829,
      "925": 2830,
      "II": 2831,
      "Sol": 2832,
      "Sierra": 2833,
      "zu": 2834,
      "eno": 2835,
      "SSamples": 2836,
      "Rey": 2837,
      "394": 2838,
      "FAz": 2839,
      "Ġ263": 2840,
      "sdk": 2841,
      "IISSamples": 2842,
      "842": 2843,
      "nie": 2844,
      "Ġ242": 2845,
      "991": 2846,
      "326": 2847,
      "541": 2848,
      "518": 2849,
      "716": 2850,
      "974": 2851,
      "dos": 2852,
      "rdoba": 2853,
      "col": 2854,
      "502": 2855,
      "084": 2856,
      "019": 2857,
      "041": 2858,
      "366": 2859,
      "946": 2860,
      "982": 2861,
      "Bi": 2862,
      "Est": 2863,
      "Pal": 2864,
      "Ti": 2865,
      "cy": 2866,
      "uk": 2867,
      "ines": 2868,
      "llan": 2869,
      "012": 2870,
      "372": 2871,
      "424": 2872,
      "588": 2873,
      "641": 2874,
      "818": 2875,
      "912": 2876,
      "sl": 2877,
      "eci": 2878,
      "002": 2879,
      "351": 2880,
      "081": 2881,
      "mann": 2882,
      "vera": 2883,
      "barcelona": 2884,
      "Traves": 2885,
      "-%": 2886,
      "561": 2887,
      "922": 2888,
      "ed": 2889,
      "ral": 2890,
      "uy": 2891,
      "vil": 2892,
      "cher": 2893,
      "dea": 2894,
      "sel": 2895,
      "ers": 2896,
      "036": 2897,
      "904": 2898,
      "342": 2899,
      "ession": 2900,
      "011": 2901,
      "Ala": 2902,
      "Bal": 2903,
      "Pan": 2904,
      "mes": 2905,
      "xi": 2906,
      "dal": 2907,
      "ssa": 2908,
      "381": 2909,
      "354": 2910,
      "Ġ245": 2911,
      "mira": 2912,
      "Pedro": 2913,
      "Camino": 2914,
      "Guip": 2915,
      "044": 2916,
      "448": 2917,
      "714": 2918,
      "Ol": 2919,
      "Oli": 2920,
      "cti": 2921,
      "ku": 2922,
      "nge": 2923,
      "ciano": 2924,
      "936": 2925,
      "054": 2926,
      "Ġ262": 2927,
      "021": 2928,
      "522": 2929,
      "726": 2930,
      "788": 2931,
      "981": 2932,
      "bri": 2933,
      "ham": 2934,
      "enla": 2935,
      "996": 2936,
      "051": 2937,
      "FAzcoa": 2938,
      "046": 2939,
      "761": 2940,
      "724": 2941,
      "Cla": 2942,
      "Esc": 2943,
      "Far": 2944,
      "oli": 2945,
      "ring": 2946,
      "leta": 2947,
      "781": 2948,
      "Ġ244": 2949,
      "024": 2950,
      "076": 2951,
      "364": 2952,
      "568": 2953,
      "762": 2954,
      "964": 2955,
      "=*": 2956,
      "ming": 2957,
      "pin": 2958,
      "agu": 2959,
      "rera": 2960,
      "dis": 2961,
      "706": 2962,
      "742": 2963,
      "998": 2964,
      "ull": 2965,
      "062": 2966,
      "Fi": 2967,
      "esp": 2968,
      "Ġ77": 2969,
      "imi": 2970,
      "Cala": 2971,
      "mbra": 2972,
      "nueva": 2973,
      "Villanueva": 2974,
      "sky": 2975,
      "Fuente": 2976,
      "542": 2977,
      "971": 2978,
      "gg": 2979,
      "vlet": 2980,
      "552": 2981,
      "amar": 2982,
      "Ġ266": 2983,
      "068": 2984,
      "072": 2985,
      "521": 2986,
      "566": 2987,
      "768": 2988,
      "816": 2989,
      "962": 2990,
      "984": 2991,
      "Don": 2992,
      "Hor": 2993,
      "ach": 2994,
      "cla": 2995,
      "vent": 2996,
      "nta": 2997,
      "796": 2998,
      "992": 2999,
      "052": 3000,
      "Pala": 3001,
      "Ġ261": 3002,
      "914": 3003,
      "Men": 3004,
      "bet": 3005,
      "nar": 3006,
      "ph": 3007,
      "932": 3008,
      "Ġ265": 3009,
      "Ponte": 3010,
      "341": 3011,
      "Ru": 3012,
      "blo": 3013,
      "bor": 3014,
      "bia": 3015,
      "cur": 3016,
      "cer": 3017,
      "lf": 3018,
      "ong": 3019,
      "Cast": 3020,
      "aul": 3021,
      "Ġ243": 3022,
      "Ġ241": 3023,
      "Ġ246": 3024,
      "Cue": 3025,
      "On": 3026,
      "bb": 3027,
      "ps": 3028,
      "596": 3029,
      "902": 3030,
      "624": 3031,
      "986": 3032,
      "Ad": 3033,
      "FRioja": 3034,
      "Ger": 3035,
      "hn": 3036,
      "hol": 3037,
      "tv": 3038,
      "wal": 3039,
      "ray": 3040,
      "adc": 3041,
      "sho": 3042,
      "Valle": 3043,
      "Mont": 3044,
      "Ġ264": 3045,
      "+.*%": 3046,
      "Franci": 3047,
      "Puerto": 3048,
      "516": 3049,
      "App": 3050,
      "Cap": 3051,
      "Mig": 3052,
      "em": 3053,
      "ges": 3054,
      "wil": 3055,
      "951": 3056,
      "Vizca": 3057,
      "314": 3058,
      "ale": 3059,
      "lino": 3060,
      "cci": 3061,
      "Luis": 3062,
      "Doctor": 3063,
      "Antonio": 3064,
      "071": 3065,
      "362": 3066,
      "746": 3067,
      "Pu": 3068,
      "iss": 3069,
      "rs": 3070,
      "tec": 3071,
      "Agu": 3072,
      "ello": 3073,
      "EDas": 3074,
      "hiper": 3075,
      "Vizcaya": 3076,
      "862": 3077,
      "966": 3078,
      "Am": 3079,
      "Lla": 3080,
      "ben": 3081,
      "mag": 3082,
      "zm": 3083,
      "cion": 3084,
      "carritoany": 3085,
      "995": 3086,
      "382": 3087,
      "086": 3088,
      "Vall": 3089,
      "Carretera": 3090,
      "Gal": 3091,
      "ji": 3092,
      "rea": 3093,
      "vedra": 3094,
      "Travesia": 3095,
      "864": 3096,
      "944": 3097,
      "ny": 3098,
      "pv": 3099,
      "sof": 3100,
      "yen": 3101,
      "eck": 3102,
      "dera": 3103,
      "seo": 3104,
      "auto": 3105,
      "Santi": 3106,
      "Casas": 3107,
      "Virgen": 3108,
      "pvt": 3109,
      "942": 3110,
      "Ho": 3111,
      "gran": 3112,
      "jes": 3113,
      "imo": 3114,
      "zaro": 3115,
      "Feli": 3116,
      ".%": 3117,
      "Bon": 3118,
      "fession": 3119,
      "gl": 3120,
      "ky": 3121,
      "mul": 3122,
      "pr": 3123,
      "ple": 3124,
      "leares": 3125,
      "berto": 3126,
      "Baleares": 3127,
      "Illes": 3128,
      "Francisco": 3129,
      "fessional": 3130,
      "Ama": 3131,
      "Este": 3132,
      "aw": 3133,
      "ay": 3134,
      "die": 3135,
      "fu": 3136,
      "fan": 3137,
      "tia": 3138,
      "Castro": 3139,
      "574": 3140,
      "812": 3141,
      "Blan": 3142,
      "Hu": 3143,
      "TE": 3144,
      "Ver": 3145,
      "bs": 3146,
      "ella": 3147,
      "kar": 3148,
      "nc": 3149,
      "pu": 3150,
      "pos": 3151,
      "ins": 3152,
      "mac": 3153,
      "972": 3154,
      "Hi": 3155,
      "aje": 3156,
      "fr": 3157,
      "line": 3158,
      "illos": 3159,
      "acio": 3160,
      "adm": 3161,
      "verde": 3162,
      "Pra": 3163,
      "cA": 3164,
      "rin": 3165,
      "kel": 3166,
      "anda": 3167,
      "EN": 3168,
      "hal": 3169,
      "ks": 3170,
      "dev": 3171,
      "iego": 3172,
      "pain": 3173,
      "Ġ267": 3174,
      "dell": 3175,
      "liano": 3176,
      "Miguel": 3177,
      "Isa": 3178,
      "Sil": 3179,
      "ate": 3180,
      "eg": 3181,
      "ey": 3182,
      "ela": 3183,
      "hen": 3184,
      "mis": 3185,
      "tte": 3186,
      "Ġ76": 3187,
      "tero": 3188,
      "tico": 3189,
      "lero": 3190,
      "cial": 3191,
      "rillo": 3192,
      "Mart": 3193,
      "madrid": 3194,
      "bes": 3195,
      "lava": 3196,
      "pal": 3197,
      "rich": 3198,
      "rist": 3199,
      "Ġ240": 3200,
      "Bra": 3201,
      "cin": 3202,
      "uro": 3203,
      "Ġ8": 3204,
      "teo": 3205,
      "osti": 3206,
      "chu": 3207,
      "ses": 3208,
      "may": 3209,
      "Mora": 3210,
      "ther": 3211,
      "elli": 3212,
      "ney": 3213,
      "Ben": 3214,
      "jon": 3215,
      "kr": 3216,
      "ola": 3217,
      "py": 3218,
      "tj": 3219,
      "Ġ78": 3220,
      "tele": 3221,
      "espa": 3222,
      "sol": 3223,
      "Quint": 3224,
      "Ara": 3225,
      "Gen": 3226,
      "Gor": 3227,
      "Za": 3228,
      "ant": 3229,
      "cli": 3230,
      "dora": 3231,
      "guer": 3232,
      "sin": 3233,
      "ssat": 3234,
      "mari": 3235,
      "uig": 3236,
      "Nu": 3237,
      "Sp": 3238,
      "cr": 3239,
      "dina": 3240,
      "iis": 3241,
      "Ġ239": 3242,
      "lig": 3243,
      "lena": 3244,
      "Carlos": 3245,
      "Valde": 3246,
      "Je": 3247,
      "Nar": 3248,
      "Script": 3249,
      "hue": 3250,
      "iiss": 3251,
      "lv": 3252,
      "nu": 3253,
      "wo": 3254,
      "zas": 3255,
      "Ġ238": 3256,
      "onso": 3257,
      "uera": 3258,
      "quer": 3259,
      "rel": 3260,
      "vis": 3261,
      "Passat": 3262,
      "Arro": 3263,
      "Ġ268": 3264,
      "Passatge": 3265,
      "Br": 3266,
      "Plan": 3267,
      "Sag": 3268,
      "lado": 3269,
      "apa": 3270,
      "Cata": 3271,
      "casa": 3272,
      "Ġ269": 3273,
      "Barri": 3274,
      "Rodri": 3275,
      "Pad": 3276,
      "Puig": 3277,
      "Sar": 3278,
      "bus": 3279,
      "bani": 3280,
      "ds": 3281,
      "gs": 3282,
      "Ġ56": 3283,
      "tino": 3284,
      "mat": 3285,
      "rer": 3286,
      "May": 3287,
      "Campo": 3288,
      "cro": 3289,
      "hr": 3290,
      "ita": 3291,
      "sar": 3292,
      "laz": 3293,
      "ngel": 3294,
      "mal": 3295,
      "rado": 3296,
      "zano": 3297,
      "Alcal": 3298,
      "Palo": 3299,
      "site": 3300,
      "Pontevedra": 3301,
      "Fab": 3302,
      "Su": 3303,
      "Samples": 3304,
      "mun": 3305,
      "wi": 3306,
      "dego": 3307,
      "inguda": 3308,
      "the": 3309,
      "Reina": 3310,
      "quin": 3311,
      "monte": 3312,
      "And": 3313,
      "webapp": 3314,
      "msadc": 3315,
      "Avinguda": 3316,
      "cnf": 3317,
      "Ig": 3318,
      "ali": 3319,
      "ico": 3320,
      "ito": 3321,
      "pri": 3322,
      "uni": 3323,
      "Ġ270": 3324,
      "ston": 3325,
      "Mur": 3326,
      "Mai": 3327,
      "Ven": 3328,
      "iz": 3329,
      "tn": 3330,
      "Ġ237": 3331,
      "infor": 3332,
      "riba": 3333,
      "linda": 3334,
      "mera": 3335,
      "degolf": 3336,
      "Eli": 3337,
      "Tr": 3338,
      "gri": 3339,
      "hard": 3340,
      "vide": 3341,
      "linos": 3342,
      "Avda": 3343,
      "nandez": 3344,
      "Gre": 3345,
      "Lar": 3346,
      "Mal": 3347,
      "ae": 3348,
      "bru": 3349,
      "edu": 3350,
      "gh": 3351,
      "mk": 3352,
      "np": 3353,
      "tran": 3354,
      "tella": 3355,
      "lei": 3356,
      "uelas": 3357,
      "reda": 3358,
      "dol": 3359,
      "professional": 3360,
      "onales": 3361,
      "bella": 3362,
      "exp": 3363,
      "fica": 3364,
      "Villar": 3365,
      "rieta": 3366,
      "informati": 3367,
      "Ali": 3368,
      "Adel": 3369,
      "Pue": 3370,
      "eta": 3371,
      "sn": 3372,
      "data": 3373,
      "cis": 3374,
      "aldo": 3375,
      "stan": 3376,
      "say": 3377,
      "Corre": 3378,
      "Garcia": 3379,
      "ajuntamentbarcelona": 3380,
      "BScript": 3381,
      "Dan": 3382,
      "VBScript": 3383,
      "fie": 3384,
      "ica": 3385,
      "Ġ42": 3386,
      "til": 3387,
      "indo": 3388,
      "ario": 3389,
      "rosa": 3390,
      "Pasaje": 3391,
      "bay": 3392,
      "Vic": 3393,
      "Torres": 3394,
      "rena": 3395,
      "Bern": 3396,
      "guez": 3397,
      "examplesWeb": 3398,
      "examplesWebApp": 3399,
      "Bla": 3400,
      "Ron": 3401,
      "nell": 3402,
      "zon": 3403,
      "htr": 3404,
      "quez": 3405,
      "dun": 3406,
      "Manuel": 3407,
      "bera": 3408,
      "uente": 3409,
      "ders": 3410,
      "Lugo": 3411,
      "admpwd": 3412,
      "iisadmpwd": 3413,
      "Bri": 3414,
      "Ex": 3415,
      "Mag": 3416,
      "Zu": 3417,
      "bl": 3418,
      "hy": 3419,
      "kh": 3420,
      "kw": 3421,
      "pm": 3422,
      "pra": 3423,
      "whi": 3424,
      "chin": 3425,
      "deh": 3426,
      "arro": 3427,
      "Cami": 3428,
      "ret": 3429,
      "rella": 3430,
      "pez": 3431,
      "nez": 3432,
      "Paseo": 3433,
      "travel": 3434,
      "travio": 3435,
      "Fede": 3436,
      "travioleta": 3437,
      "avi": 3438,
      "cle": 3439,
      "fle": 3440,
      "sj": 3441,
      "vu": 3442,
      "vador": 3443,
      "Ġ235": 3444,
      "cant": 3445,
      "colo": 3446,
      "nova": 3447,
      "arte": 3448,
      "ford": 3449,
      "mero": 3450,
      "2420": 3451,
      "adas": 3452,
      "Valverde": 3453,
      "iissamples": 3454,
      "Nog": 3455,
      "bn": 3456,
      "dz": 3457,
      "eh": 3458,
      "kp": 3459,
      "mcc": 3460,
      "pl": 3461,
      "pol": 3462,
      "wel": 3463,
      "yan": 3464,
      "Ġ55": 3465,
      "camp": 3466,
      "ens": 3467,
      "lit": 3468,
      "api": 3469,
      "led": 3470,
      "mbo": 3471,
      "4059": 3472,
      "2387": 3473,
      "ados": 3474,
      "Villal": 3475,
      "mont": 3476,
      "sampsite": 3477,
      "Huer": 3478,
      "iq": 3479,
      "mus": 3480,
      "zzi": 3481,
      "tea": 3482,
      "tis": 3483,
      "lada": 3484,
      "orca": 3485,
      "EDs": 3486,
      "ett": 3487,
      "zada": 3488,
      "Ay": 3489,
      "Arag": 3490,
      "Ame": 3491,
      "Ir": 3492,
      "bj": 3493,
      "cra": 3494,
      "jet": 3495,
      "kim": 3496,
      "mx": 3497,
      "nf": 3498,
      "nz": 3499,
      "sur": 3500,
      "vc": 3501,
      "wn": 3502,
      "ys": 3503,
      "ons": 3504,
      "ardo": 3505,
      "ueta": 3506,
      "servlet": 3507,
      "ciru": 3508,
      "tool": 3509,
      "adilla": 3510,
      "aus": 3511,
      "audi": 3512,
      "ames": 3513,
      "incorrectasany": 3514,
      "Alf": 3515,
      "vic": 3516,
      "Martin": 3517,
      "lls": 3518,
      "ster": 3519,
      "land": 3520,
      "sanchez": 3521,
      "club": 3522,
      "Ace": 3523,
      "Beni": 3524,
      "Nue": 3525,
      "Os": 3526,
      "Pes": 3527,
      "cI": 3528,
      "dE": 3529,
      "hel": 3530,
      "kn": 3531,
      "lb": 3532,
      "mir": 3533,
      "yi": 3534,
      "uez": 3535,
      "Mor": 3536,
      "gio": 3537,
      "eros": 3538,
      "ofer": 3539,
      "sala": 3540,
      "she": 3541,
      "Leon": 3542,
      "Urbani": 3543,
      "Puebla": 3544,
      "Urbaniz": 3545,
      "=.": 3546,
      "=+&": 3547,
      "Ari": 3548,
      "Cru": 3549,
      "Du": 3550,
      "Due": 3551,
      "Fun": 3552,
      "Medi": 3553,
      "Qui": 3554,
      "Ram": 3555,
      "Sim": 3556,
      "cs": 3557,
      "ken": 3558,
      "sr": 3559,
      "sim": 3560,
      "up": 3561,
      "inter": 3562,
      "sey": 3563,
      "pat": 3564,
      "Casa": 3565,
      "rigo": 3566,
      "cars": 3567,
      "rat": 3568,
      "tanto": 3569,
      "stein": 3570,
      "ign": 3571,
      "Ada": 3572,
      "Sen": 3573,
      "bie": 3574,
      "dd": 3575,
      "hat": 3576,
      "ila": 3577,
      "oz": 3578,
      "sz": 3579,
      "sas": 3580,
      "nor": 3581,
      "nga": 3582,
      "servi": 3583,
      "gil": 3584,
      "1167": 3585,
      "gold": 3586,
      "etti": 3587,
      "Manzan": 3588,
      "Alb": 3589,
      "mila": 3590,
      "Santo": 3591,
      "zarote": 3592,
      "Urbanizacion": 3593,
      "/~": 3594,
      "As": 3595,
      "Az": 3596,
      "Cub": 3597,
      "Ing": 3598,
      "Mos": 3599,
      "bil": 3600,
      "bsamp": 3601,
      "dj": 3602,
      "dbsamp": 3603,
      "fel": 3604,
      "gf": 3605,
      "hk": 3606,
      "vir": 3607,
      "war": 3608,
      "chan": 3609,
      "apla": 3610,
      "sext": 3611,
      "ueda": 3612,
      "quet": 3613,
      "rey": 3614,
      "rero": 3615,
      "2545": 3616,
      "eral": 3617,
      "4743": 3618,
      "adora": 3619,
      "sha": 3620,
      "show": 3621,
      "Cur": 3622,
      "Pro": 3623,
      "Tene": 3624,
      "Vie": 3625,
      "aq": 3626,
      "din": 3627,
      "iana": 3628,
      "Ġ271": 3629,
      "Ġ236": 3630,
      "cano": 3631,
      "Conde": 3632,
      "lez": 3633,
      "rife": 3634,
      "4089": 3635,
      "mode": 3636,
      "6099": 3637,
      "bala": 3638,
      "base": 3639,
      "Barrio": 3640,
      "shi": 3641,
      "Ped": 3642,
      "hote": 3643,
      "docs": 3644,
      "here": 3645,
      "Campos": 3646,
      "Tenerife": 3647,
      "CI": 3648,
      "DO": 3649,
      "Serra": 3650,
      "TI": 3651,
      "bos": 3652,
      "blan": 3653,
      "eas": 3654,
      "ili": 3655,
      "pis": 3656,
      "vell": 3657,
      "wer": 3658,
      "zal": 3659,
      "Ġ83": 3660,
      "cole": 3661,
      "seig": 3662,
      "dado": 3663,
      "maj": 3664,
      "andre": 3665,
      "esc": 3666,
      "jada": 3667,
      "ultravioleta": 3668,
      "gat": 3669,
      "Riu": 3670,
      "cpan": 3671,
      "ea": 3672,
      "fla": 3673,
      "ias": 3674,
      "lt": 3675,
      "lec": 3676,
      "sb": 3677,
      "tk": 3678,
      "tta": 3679,
      "una": 3680,
      "Ġ37": 3681,
      "Ġ275": 3682,
      "enlan": 3683,
      "8056": 3684,
      "info": 3685,
      "rica": 3686,
      "anes": 3687,
      "1009": 3688,
      "1646": 3689,
      "cortin": 3690,
      "sant": 3691,
      "sito": 3692,
      "viajes": 3693,
      "poli": 3694,
      "Mira": 3695,
      "Quin": 3696,
      "WebSp": 3697,
      "Cuesta": 3698,
      "database": 3699,
      "hereSamples": 3700,
      "cpanel": 3701,
      "enlanzarote": 3702,
      "cortinas": 3703,
      "WebSphereSamples": 3704,
      "Air": 3705,
      "Fru": 3706,
      "Ge": 3707,
      "Gon": 3708,
      "Para": 3709,
      "Zo": 3710,
      "cx": 3711,
      "ejo": 3712,
      "gun": 3713,
      "rent": 3714,
      "tura": 3715,
      "zy": 3716,
      "zuela": 3717,
      "Ġ20": 3718,
      "Ġ273": 3719,
      "enie": 3720,
      "cch": 3721,
      "chea": 3722,
      "rol": 3723,
      "lom": 3724,
      "nom": 3725,
      "ies": 3726,
      "lera": 3727,
      "mala": 3728,
      "Camer": 3729,
      "ques": 3730,
      "Agui": 3731,
      "orn": 3732,
      "diz": 3733,
      "esa": 3734,
      "vina": 3735,
      "stica": 3736,
      "terio": 3737,
      "7119": 3738,
      "stru": 3739,
      "Alc": 3740,
      "Nava": 3741,
      "Pere": 3742,
      "Rafa": 3743,
      "field": 3744,
      "ExAir": 3745,
      "Cameros": 3746,
      "=-": 3747,
      "Bell": 3748,
      "Cin": 3749,
      "Diego": 3750,
      "Fig": 3751,
      "Llu": 3752,
      "Pr": 3753,
      "cv": 3754,
      "dec": 3755,
      "fra": 3756,
      "gadas": 3757,
      "mw": 3758,
      "sla": 3759,
      "vol": 3760,
      "zr": 3761,
      "Ġ81": 3762,
      "tica": 3763,
      "enzo": 3764,
      "dero": 3765,
      "Cabe": 3766,
      "rei": 3767,
      "4073": 3768,
      "uran": 3769,
      "2826": 3770,
      "8747": 3771,
      "4167": 3772,
      "meda": 3773,
      "stin": 3774,
      "Arte": 3775,
      "Maes": 3776,
      "Merce": 3777,
      "AL": 3778,
      "Bel": 3779,
      "Fl": 3780,
      "Glo": 3781,
      "Mir": 3782,
      "ao": 3783,
      "ado": 3784,
      "ee": 3785,
      "gd": 3786,
      "gw": 3787,
      "mq": 3788,
      "uz": 3789,
      "uli": 3790,
      "cad": 3791,
      "lian": 3792,
      "low": 3793,
      "apo": 3794,
      "uelos": 3795,
      "Com": 3796,
      "kov": 3797,
      "ril": 3798,
      "rida": 3799,
      "4011": 3800,
      "6313": 3801,
      "2829": 3802,
      "1917": 3803,
      "stor": 3804,
      "llero": 3805,
      "Alde": 3806,
      "vida": 3807,
      "bol": 3808,
      "bot": 3809,
      "Marti": 3810,
      "bea": 3811,
      "hoja": 3812,
      "lyn": 3813,
      "Espa": 3814,
      "Joan": 3815,
      "Merca": 3816,
      "Castillo": 3817,
      "Arroyo": 3818,
      "white": 3819,
      "Ha": 3820,
      "Nor": 3821,
      "ght": 3822,
      "iti": 3823,
      "vg": 3824,
      "vet": 3825,
      "Ġ274": 3826,
      "tic": 3827,
      "enta": 3828,
      "resa": 3829,
      "dilla": 3830,
      "doro": 3831,
      "rick": 3832,
      "1713": 3833,
      "6567": 3834,
      "1947": 3835,
      "6887": 3836,
      "mez": 3837,
      "teria": 3838,
      "som": 3839,
      "home": 3840,
      "munt": 3841,
      "Pica": 3842,
      "Doming": 3843,
      "Blas": 3844,
      "Cara": 3845,
      "Dal": 3846,
      "Gin": 3847,
      "Jos": 3848,
      "Lor": 3849,
      "Sel": 3850,
      "Via": 3851,
      "dona": 3852,
      "fal": 3853,
      "hil": 3854,
      "hir": 3855,
      "hua": 3856,
      "jer": 3857,
      "kz": 3858,
      "lc": 3859,
      "nal": 3860,
      "qa": 3861,
      "sv": 3862,
      "tc": 3863,
      "von": 3864,
      "cata": 3865,
      "rou": 3866,
      "rola": 3867,
      "lef": 3868,
      "mata": 3869,
      "ueva": 3870,
      "bles": 3871,
      "tienes": 3872,
      "urn": 3873,
      "ando": 3874,
      "sso": 3875,
      "sson": 3876,
      "1771": 3877,
      "2215": 3878,
      "2009": 3879,
      "1115": 3880,
      "amente": 3881,
      "corjet": 3882,
      "incorrectasbob": 3883,
      "Vilar": 3884,
      "Pablo": 3885,
      "usto": 3886,
      "Mata": 3887,
      "Naval": 3888,
      "Montes": 3889,
      "lasen": 3890,
      "ells": 3891,
      "Vega": 3892,
      "tware": 3893,
      "Castrillo": 3894,
      "tools": 3895,
      "Cris": 3896,
      "Hon": 3897,
      "Ll": 3898,
      "Min": 3899,
      "oR": 3900,
      "rE": 3901,
      "Ġ22": 3902,
      "Ġ277": 3903,
      "tet": 3904,
      "8029": 3905,
      "coop": 3906,
      "lee": 3907,
      "mani": 3908,
      "ntas": 3909,
      "Lan": 3910,
      "uber": 3911,
      "2750": 3912,
      "mobi": 3913,
      "anne": 3914,
      "est": 3915,
      "esto": 3916,
      "4755": 3917,
      "2245": 3918,
      "4929": 3919,
      "4825": 3920,
      "2423": 3921,
      "long": 3922,
      "Servlet": 3923,
      "Au": 3924,
      "Aran": 3925,
      "Eche": 3926,
      "Fr": 3927,
      "Fre": 3928,
      "Gas": 3929,
      "Nt": 3930,
      "Pine": 3931,
      "Pelli": 3932,
      "Rub": 3933,
      "TO": 3934,
      "bt": 3935,
      "bcn": 3936,
      "cg": 3937,
      "cen": 3938,
      "gy": 3939,
      "gel": 3940,
      "hon": 3941,
      "his": 3942,
      "mg": 3943,
      "mpe": 3944,
      "naci": 3945,
      "pio": 3946,
      "vac": 3947,
      "Ġ234": 3948,
      "tijo": 3949,
      "china": 3950,
      "cola": 3951,
      "seca": 3952,
      "aria": 3953,
      "less": 3954,
      "red": 3955,
      "gia": 3956,
      "4017": 3957,
      "4054": 3958,
      "more": 3959,
      "molinos": 3960,
      "1700": 3961,
      "6547": 3962,
      "6763": 3963,
      "4750": 3964,
      "nico": 3965,
      "2613": 3966,
      "2685": 3967,
      "8887": 3968,
      "aix": 3969,
      "Alba": 3970,
      "exe": 3971,
      "varez": 3972,
      "heal": 3973,
      "bios": 3974,
      "you": 3975,
      "way": 3976,
      "ajuntamentde": 3977,
      "Isabel": 3978,
      "General": 3979,
      "Cri": 3980,
      "Fla": 3981,
      "Ming": 3982,
      "Puente": 3983,
      "Rosa": 3984,
      "aexp": 3985,
      "ire": 3986,
      "lk": 3987,
      "pw": 3988,
      "tm": 3989,
      "Ġ6": 3990,
      "cala": 3991,
      "tina": 3992,
      "palo": 3993,
      "spar": 3994,
      "2539": 3995,
      "cidad": 3996,
      "uru": 3997,
      "1535": 3998,
      "progra": 3999,
      "2887": 4000,
      "6780": 4001,
      "6771": 4002,
      "8900": 4003,
      "adio": 4004,
      "6810": 4005,
      "7263": 4006,
      "zara": 4007,
      "mucho": 4008,
      "Teo": 4009,
      "Pintor": 4010,
      "CO": 4011,
      "Eu": 4012,
      "Fres": 4013,
      "Jal": 4014,
      "Ofi": 4015,
      "Tran": 4016,
      "Ya": 4017,
      "bf": 4018,
      "fj": 4019,
      "gin": 4020,
      "hl": 4021,
      "ib": 4022,
      "mm": 4023,
      "mue": 4024,
      "mur": 4025,
      "tl": 4026,
      "use": 4027,
      "vid": 4028,
      "wit": 4029,
      "zana": 4030,
      "Ġ272": 4031,
      "Ġ231": 4032,
      "tech": 4033,
      "tit": 4034,
      "tila": 4035,
      "osta": 4036,
      "ches": 4037,
      "ardi": 4038,
      "lem": 4039,
      "cillo": 4040,
      "dillo": 4041,
      "riana": 4042,
      "4021": 4043,
      "pel": 4044,
      "ania": 4045,
      "6555": 4046,
      "6544": 4047,
      "2860": 4048,
      "ash": 4049,
      "asia": 4050,
      "illi": 4051,
      "tari": 4052,
      "2643": 4053,
      "0983": 4054,
      "rada": 4055,
      "5565": 4056,
      "7967": 4057,
      "ace": 4058,
      "acruz": 4059,
      "6424": 4060,
      "stri": 4061,
      "tsch": 4062,
      "Aren": 4063,
      "beau": 4064,
      "Sebas": 4065,
      "incon": 4066,
      "Luci": 4067,
      "Ferre": 4068,
      "fredo": 4069,
      "Rodrigo": 4070,
      "Murcia": 4071,
      "Vicente": 4072,
      "Rafael": 4073,
      "Ban": 4074,
      "Ramon": 4075,
      "iri": 4076,
      "jera": 4077,
      "rue": 4078,
      "sm": 4079,
      "Ġ9": 4080,
      "Ġ12": 4081,
      "Ġ14": 4082,
      "enc": 4083,
      "logi": 4084,
      "reg": 4085,
      "2511": 4086,
      "2557": 4087,
      "2725": 4088,
      "2740": 4089,
      "2770": 4090,
      "urt": 4091,
      "ander": 4092,
      "1543": 4093,
      "6585": 4094,
      "2830": 4095,
      "4585": 4096,
      "6020": 4097,
      "4989": 4098,
      "aut": 4099,
      "audio": 4100,
      "nego": 4101,
      "beach": 4102,
      "Perez": 4103,
      "barni": 4104,
      "garra": 4105,
      "Calzada": 4106,
      "Alex": 4107,
      "ofertas": 4108,
      "At": 4109,
      "Bos": 4110,
      "Bru": 4111,
      "Clo": 4112,
      "Cel": 4113,
      "Ceci": 4114,
      "Esg": 4115,
      "Hel": 4116,
      "Jan": 4117,
      "Les": 4118,
      "Mes": 4119,
      "Rie": 4120,
      "Rog": 4121,
      "av": 4122,
      "ax": 4123,
      "bby": 4124,
      "dI": 4125,
      "dm": 4126,
      "ek": 4127,
      "fil": 4128,
      "jal": 4129,
      "ning": 4130,
      "nes": 4131,
      "oh": 4132,
      "pf": 4133,
      "ping": 4134,
      "pul": 4135,
      "pres": 4136,
      "sie": 4137,
      "vsky": 4138,
      "Ġ40": 4139,
      "Ġ79": 4140,
      "tek": 4141,
      "tell": 4142,
      "tillo": 4143,
      "lad": 4144,
      "row": 4145,
      "lod": 4146,
      "sell": 4147,
      "nger": 4148,
      "leo": 4149,
      "ime": 4150,
      "losa": 4151,
      "mba": 4152,
      "2759": 4153,
      "pes": 4154,
      "pedro": 4155,
      "mol": 4156,
      "1000": 4157,
      "elsen": 4158,
      "1523": 4159,
      "4747": 4160,
      "1980": 4161,
      "4393": 4162,
      "6047": 4163,
      "6096": 4164,
      "4863": 4165,
      "4165": 4166,
      "2161": 4167,
      "aula": 4168,
      "1813": 4169,
      "Pastor": 4170,
      "tat": 4171,
      "ultor": 4172,
      "cero": 4173,
      "Mala": 4174,
      "hambra": 4175,
      "Polig": 4176,
      "vilano": 4177,
      "essionid": 4178,
      "gues": 4179,
      "Isla": 4180,
      "gordo": 4181,
      "Floren": 4182,
      "ringring": 4183,
      "Padre": 4184,
      "Alcalde": 4185,
      "blue": 4186,
      "aplastica": 4187,
      "Glorieta": 4188,
      "Poligono": 4189,
      "Ac": 4190,
      "Ed": 4191,
      "Ori": 4192,
      "Res": 4193,
      "ak": 4194,
      "fos": 4195,
      "mia": 4196,
      "oles": 4197,
      "sio": 4198,
      "zer": 4199,
      "camb": 4200,
      "tegui": 4201,
      "8069": 4202,
      "lib": 4203,
      "chon": 4204,
      "arr": 4205,
      "quera": 4206,
      "Cha": 4207,
      "4009": 4208,
      "andra": 4209,
      "1063": 4210,
      "1003": 4211,
      "2320": 4212,
      "1797": 4213,
      "6590": 4214,
      "6905": 4215,
      "1380": 4216,
      "1360": 4217,
      "4377": 4218,
      "8799": 4219,
      "8735": 4220,
      "4937": 4221,
      "8339": 4222,
      "8316": 4223,
      "ntcu": 4224,
      "4865": 4225,
      "7900": 4226,
      "5999": 4227,
      "7449": 4228,
      "0045": 4229,
      "4215": 4230,
      "0723": 4231,
      "santcu": 4232,
      "Passeig": 4233,
      "mini": 4234,
      "Victor": 4235,
      "toria": 4236,
      "veros": 4237,
      "bien": 4238,
      "Soto": 4239,
      "hann": 4240,
      "cpanelweb": 4241,
      "Domingo": 4242,
      "5175": 4243,
      "Ang": 4244,
      "Des": 4245,
      "Fn": 4246,
      "Gr": 4247,
      "Gab": 4248,
      "Jor": 4249,
      "Muri": 4250,
      "Oro": 4251,
      "RI": 4252,
      "Sha": 4253,
      "Tre": 4254,
      "ama": 4255,
      "cz": 4256,
      "cub": 4257,
      "dA": 4258,
      "dll": 4259,
      "eo": 4260,
      "fis": 4261,
      "ffe": 4262,
      "hid": 4263,
      "hog": 4264,
      "jue": 4265,
      "king": 4266,
      "mh": 4267,
      "mr": 4268,
      "mtos": 4269,
      "nr": 4270,
      "tg": 4271,
      "vier": 4272,
      "wol": 4273,
      "cam": 4274,
      "tivo": 4275,
      "8022": 4276,
      "ngo": 4277,
      "quel": 4278,
      "reta": 4279,
      "2554": 4280,
      "enga": 4281,
      "order": 4282,
      "mbr": 4283,
      "mbar": 4284,
      "dida": 4285,
      "2735": 4286,
      "moto": 4287,
      "movi": 4288,
      "alqui": 4289,
      "elle": 4290,
      "2385": 4291,
      "6517": 4292,
      "6583": 4293,
      "1313": 4294,
      "6729": 4295,
      "6799": 4296,
      "6735": 4297,
      "4709": 4298,
      "1939": 4299,
      "4307": 4300,
      "4515": 4301,
      "8703": 4302,
      "adia": 4303,
      "8319": 4304,
      "0909": 4305,
      "ram": 4306,
      "2115": 4307,
      "5960": 4308,
      "7460": 4309,
      "2447": 4310,
      "1210": 4311,
      "gob": 4312,
      "3748": 4313,
      "menorca": 4314,
      "ette": 4315,
      "scripts": 4316,
      "mine": 4317,
      "box": 4318,
      "Arriba": 4319,
      "vea": 4320,
      "Carri": 4321,
      "uena": 4322,
      "ebac": 4323,
      "jeda": 4324,
      "hay": 4325,
      "faders": 4326,
      "Parser": 4327,
      "Campa": 4328,
      "Salvador": 4329,
      "wei": 4330,
      "Font": 4331,
      "Escri": 4332,
      "ault": 4333,
      "automovi": 4334,
      "cinco": 4335,
      "Mayor": 4336,
      "Andres": 4337,
      "Ronda": 4338,
      "welcom": 4339,
      "automoviles": 4340,
      "Dor": 4341,
      "Gri": 4342,
      "Mel": 4343,
      "ain": 4344,
      "dras": 4345,
      "ef": 4346,
      "ese": 4347,
      "iN": 4348,
      "pint": 4349,
      "uar": 4350,
      "usa": 4351,
      "vana": 4352,
      "Ġ113": 4353,
      "cador": 4354,
      "ende": 4355,
      "enko": 4356,
      "8015": 4357,
      "8077": 4358,
      "8093": 4359,
      "lich": 4360,
      "pav": 4361,
      "cias": 4362,
      "2939": 4363,
      "elles": 4364,
      "6339": 4365,
      "2369": 4366,
      "1505": 4367,
      "2817": 4368,
      "2815": 4369,
      "2869": 4370,
      "asal": 4371,
      "2220": 4372,
      "2200": 4373,
      "4385": 4374,
      "4373": 4375,
      "4503": 4376,
      "6040": 4377,
      "6075": 4378,
      "8769": 4379,
      "4981": 4380,
      "0989": 4381,
      "4889": 4382,
      "3359": 4383,
      "6867": 4384,
      "5320": 4385,
      "0323": 4386,
      "3189": 4387,
      "Mari": 4388,
      "Poeta": 4389,
      "Hernandez": 4390,
      "lazquez": 4391,
      "video": 4392,
      "Bol": 4393,
      "Cerra": 4394,
      "Edu": 4395,
      "Fo": 4396,
      "Jara": 4397,
      "Mit": 4398,
      "Oc": 4399,
      "Pet": 4400,
      "Pera": 4401,
      "Rec": 4402,
      "Vent": 4403,
      "ato": 4404,
      "aero": 4405,
      "bh": 4406,
      "bir": 4407,
      "bran": 4408,
      "bana": 4409,
      "brid": 4410,
      "eS": 4411,
      "eli": 4412,
      "ele": 4413,
      "edo": 4414,
      "eiro": 4415,
      "hin": 4416,
      "jm": 4417,
      "jun": 4418,
      "jol": 4419,
      "nl": 4420,
      "rt": 4421,
      "rw": 4422,
      "rub": 4423,
      "tch": 4424,
      "tac": 4425,
      "unt": 4426,
      "wat": 4427,
      "cafe": 4428,
      "ting": 4429,
      "8089": 4430,
      "inosa": 4431,
      "agua": 4432,
      "roo": 4433,
      "ropa": 4434,
      "novi": 4435,
      "sele": 4436,
      "lea": 4437,
      "maro": 4438,
      "imar": 4439,
      "Cana": 4440,
      "comer": 4441,
      "raga": 4442,
      "revi": 4443,
      "2559": 4444,
      "2599": 4445,
      "digo": 4446,
      "ridad": 4447,
      "4019": 4448,
      "4014": 4449,
      "1099": 4450,
      "alle": 4451,
      "alfo": 4452,
      "2909": 4453,
      "6573": 4454,
      "6508": 4455,
      "1323": 4456,
      "2880": 4457,
      "6785": 4458,
      "6787": 4459,
      "6753": 4460,
      "4739": 4461,
      "4759": 4462,
      "1979": 4463,
      "2221": 4464,
      "4317": 4465,
      "4339": 4466,
      "4326": 4467,
      "4355": 4468,
      "4300": 4469,
      "8567": 4470,
      "8597": 4471,
      "4510": 4472,
      "4560": 4473,
      "2099": 4474,
      "8960": 4475,
      "8937": 4476,
      "FAs": 4477,
      "4129": 4478,
      "2169": 4479,
      "gov": 4480,
      "Alco": 4481,
      "tsu": 4482,
      "jobs": 4483,
      "torre": 4484,
      "Valen": 4485,
      "Roca": 4486,
      "orge": 4487,
      "orges": 4488,
      "Valder": 4489,
      "yama": 4490,
      "ueras": 4491,
      "quie": 4492,
      "rente": 4493,
      "anilla": 4494,
      "Canal": 4495,
      "Lopez": 4496,
      "Cervera": 4497,
      "Josep": 4498,
      "Palmas": 4499,
      "imiento": 4500,
      "Horn": 4501,
      "hipermadrid": 4502,
      "mayor": 4503,
      "hardt": 4504,
      "campo": 4505,
      "Duero": 4506,
      "hoteles": 4507,
      "hojainformati": 4508,
      "Lorenzo": 4509,
      "ajuntamentdebarcelona": 4510,
      "alfombra": 4511,
      "5250": 4512,
      "Bus": 4513,
      "Estra": 4514,
      "Edel": 4515,
      "Nel": 4516,
      "Sof": 4517,
      "illa": 4518,
      "kam": 4519,
      "mv": 4520,
      "nd": 4521,
      "rO": 4522,
      "vn": 4523,
      "Ġ89": 4524,
      "Ġ232": 4525,
      "ages": 4526,
      "maz": 4527,
      "Camar": 4528,
      "rett": 4529,
      "2739": 4530,
      "2779": 4531,
      "4015": 4532,
      "4024": 4533,
      "ann": 4534,
      "estu": 4535,
      "2987": 4536,
      "2360": 4537,
      "2352": 4538,
      "1744": 4539,
      "1573": 4540,
      "1595": 4541,
      "6559": 4542,
      "1991": 4543,
      "8310": 4544,
      "8329": 4545,
      "8345": 4546,
      "8320": 4547,
      "ramo": 4548,
      "4180": 4549,
      "aud": 4550,
      "6815": 4551,
      "6460": 4552,
      "vate": 4553,
      "Aldea": 4554,
      "tus": 4555,
      "Carmen": 4556,
      "Ġ281": 4557,
      "kawa": 4558,
      "scan": 4559,
      "Garc": 4560,
      "Rodriguez": 4561,
      "Aba": 4562,
      "Ces": 4563,
      "FI": 4564,
      "Fan": 4565,
      "Gan": 4566,
      "Hen": 4567,
      "Hig": 4568,
      "Lli": 4569,
      "Mun": 4570,
      "Nte": 4571,
      "Prin": 4572,
      "Sor": 4573,
      "Tu": 4574,
      "Us": 4575,
      "Vil": 4576,
      "Wal": 4577,
      "Zur": 4578,
      "bara": 4579,
      "ei": 4580,
      "ear": 4581,
      "eda": 4582,
      "eri": 4583,
      "eve": 4584,
      "ffi": 4585,
      "gema": 4586,
      "hig": 4587,
      "hosti": 4588,
      "ise": 4589,
      "ian": 4590,
      "pren": 4591,
      "ska": 4592,
      "sms": 4593,
      "tA": 4594,
      "tras": 4595,
      "udi": 4596,
      "vos": 4597,
      "wan": 4598,
      "Ġ87": 4599,
      "Ġ91": 4600,
      "Ġ233": 4601,
      "Ġ119": 4602,
      "tio": 4603,
      "tiz": 4604,
      "tido": 4605,
      "enel": 4606,
      "lag": 4607,
      "lilla": 4608,
      "inte": 4609,
      "set": 4610,
      "arra": 4611,
      "imen": 4612,
      "uelo": 4613,
      "Cat": 4614,
      "Cali": 4615,
      "Codigo": 4616,
      "quesa": 4617,
      "rago": 4618,
      "2521": 4619,
      "2579": 4620,
      "2595": 4621,
      "orra": 4622,
      "cil": 4623,
      "2758": 4624,
      "2781": 4625,
      "4027": 4626,
      "4030": 4627,
      "moy": 4628,
      "motor": 4629,
      "ante": 4630,
      "este": 4631,
      "alon": 4632,
      "alhambra": 4633,
      "2919": 4634,
      "2339": 4635,
      "2370": 4636,
      "1547": 4637,
      "1560": 4638,
      "1599": 4639,
      "6510": 4640,
      "6511": 4641,
      "6518": 4642,
      "6923": 4643,
      "6979": 4644,
      "6908": 4645,
      "1355": 4646,
      "1301": 4647,
      "6750": 4648,
      "4713": 4649,
      "1928": 4650,
      "1987": 4651,
      "2219": 4652,
      "4375": 4653,
      "8546": 4654,
      "8588": 4655,
      "4580": 4656,
      "6053": 4657,
      "2079": 4658,
      "4955": 4659,
      "adiana": 4660,
      "8360": 4661,
      "1169": 4662,
      "4828": 4663,
      "4867": 4664,
      "met": 4665,
      "1886": 4666,
      "2440": 4667,
      "oftware": 4668,
      "Alber": 4669,
      "vivo": 4670,
      "under": 4671,
      "cep": 4672,
      "isapi": 4673,
      "vero": 4674,
      "Marce": 4675,
      "Guil": 4676,
      "Monas": 4677,
      "hama": 4678,
      "Lugar": 4679,
      "Ribera": 4680,
      "Miquel": 4681,
      "Fernandez": 4682,
      "brook": 4683,
      "burn": 4684,
      "wski": 4685,
      "farma": 4686,
      "Castany": 4687,
      "softw": 4688,
      "Esteban": 4689,
      "Quintana": 4690,
      "wood": 4691,
      "informatica": 4692,
      "colores": 4693,
      "Aragon": 4694,
      "cirugi": 4695,
      "modelos": 4696,
      "Fresno": 4697,
      "alquiler": 4698,
      "cincocolores": 4699,
      "automovilesalhambra": 4700,
      "ropadegolf": 4701,
      "hosting": 4702,
      "0093": 4703,
      "7730": 4704,
      "Ani": 4705,
      "Bene": 4706,
      "Cos": 4707,
      "Gel": 4708,
      "Pol": 4709,
      "Sam": 4710,
      "Zor": 4711,
      "tru": 4712,
      "zw": 4713,
      "Ġ279": 4714,
      "tian": 4715,
      "entes": 4716,
      "8073": 4717,
      "agan": 4718,
      "agel": 4719,
      "kes": 4720,
      "Comp": 4721,
      "2505": 4722,
      "2581": 4723,
      "2714": 4724,
      "4013": 4725,
      "2333": 4726,
      "6536": 4727,
      "6920": 4728,
      "1339": 4729,
      "2819": 4730,
      "1949": 4731,
      "8529": 4732,
      "8587": 4733,
      "8590": 4734,
      "iden": 4735,
      "4513": 4736,
      "4522": 4737,
      "4520": 4738,
      "night": 4739,
      "2065": 4740,
      "2012": 4741,
      "4925": 4742,
      "8300": 4743,
      "8366": 4744,
      "3989": 4745,
      "2645": 4746,
      "4810": 4747,
      "3302": 4748,
      "4615": 4749,
      "4626": 4750,
      "2148": 4751,
      "6167": 4752,
      "1845": 4753,
      "casti": 4754,
      "7213": 4755,
      "8187": 4756,
      "3169": 4757,
      "5469": 4758,
      "minas": 4759,
      "Ġ280": 4760,
      "new": 4761,
      "Sanchez": 4762,
      "velazquez": 4763,
      "Barra": 4764,
      "Ġ282": 4765,
      "fernan": 4766,
      "Esco": 4767,
      "Noel": 4768,
      "Felipe": 4769,
      "Morales": 4770,
      "mundo": 4771,
      "private": 4772,
      "sayuela": 4773,
      "artesol": 4774,
      "cortinasartesol": 4775,
      "Cristo": 4776,
      "welcome": 4777,
      "Ap": 4778,
      "Baix": 4779,
      "Dami": 4780,
      "Gru": 4781,
      "Hino": 4782,
      "Iz": 4783,
      "Jorge": 4784,
      "Lara": 4785,
      "Oca": 4786,
      "Ola": 4787,
      "Pen": 4788,
      "Pie": 4789,
      "Rui": 4790,
      "Sau": 4791,
      "Vera": 4792,
      "Yas": 4793,
      "aR": 4794,
      "bg": 4795,
      "bina": 4796,
      "dino": 4797,
      "dns": 4798,
      "eN": 4799,
      "emp": 4800,
      "fin": 4801,
      "ido": 4802,
      "kos": 4803,
      "mz": 4804,
      "nas": 4805,
      "pen": 4806,
      "sE": 4807,
      "scha": 4808,
      "spain": 4809,
      "td": 4810,
      "uenga": 4811,
      "yles": 4812,
      "Ġ88": 4813,
      "Ġ82": 4814,
      "Ġ94": 4815,
      "cap": 4816,
      "telo": 4817,
      "tiva": 4818,
      "lah": 4819,
      "lal": 4820,
      "lam": 4821,
      "lap": 4822,
      "lach": 4823,
      "indi": 4824,
      "chie": 4825,
      "roco": 4826,
      "ecla": 4827,
      "ecer": 4828,
      "dear": 4829,
      "aran": 4830,
      "ager": 4831,
      "max": 4832,
      "ues": 4833,
      "uelle": 4834,
      "Coro": 4835,
      "inga": 4836,
      "spo": 4837,
      "2513": 4838,
      "2509": 4839,
      "2518": 4840,
      "thur": 4841,
      "2780": 4842,
      "2726": 4843,
      "2793": 4844,
      "rilla": 4845,
      "rique": 4846,
      "4010": 4847,
      "4020": 4848,
      "4031": 4849,
      "caraz": 4850,
      "ans": 4851,
      "1089": 4852,
      "6347": 4853,
      "6379": 4854,
      "2365": 4855,
      "2379": 4856,
      "2353": 4857,
      "iol": 4858,
      "1517": 4859,
      "1515": 4860,
      "6564": 4861,
      "6578": 4862,
      "6952": 4863,
      "1349": 4864,
      "2840": 4865,
      "2888": 4866,
      "2853": 4867,
      "4727": 4868,
      "1965": 4869,
      "1978": 4870,
      "1990": 4871,
      "8547": 4872,
      "8579": 4873,
      "4539": 4874,
      "8755": 4875,
      "8779": 4876,
      "4965": 4877,
      "4975": 4878,
      "8909": 4879,
      "8941": 4880,
      "8975": 4881,
      "8977": 4882,
      "carritobob": 4883,
      "3990": 4884,
      "1120": 4885,
      "FAcar": 4886,
      "4848": 4887,
      "4127": 4888,
      "4110": 4889,
      "4128": 4890,
      "7543": 4891,
      "7982": 4892,
      "6147": 4893,
      "6120": 4894,
      "6829": 4895,
      "melo": 4896,
      "acena": 4897,
      "1881": 4898,
      "5949": 4899,
      "5977": 4900,
      "5029": 4901,
      "8816": 4902,
      "5370": 4903,
      "7775": 4904,
      "1669": 4905,
      "7815": 4906,
      "9047": 4907,
      "6249": 4908,
      "DEs": 4909,
      "styles": 4910,
      "ady": 4911,
      "adra": 4912,
      "scon": 4913,
      "tasp": 4914,
      "zales": 4915,
      "Alci": 4916,
      "Albe": 4917,
      "Alvarez": 4918,
      "foro": 4919,
      "bano": 4920,
      "tugal": 4921,
      "bou": 4922,
      "delavida": 4923,
      "gay": 4924,
      "neo": 4925,
      "Sanz": 4926,
      "llon": 4927,
      "Bala": 4928,
      "sher": 4929,
      "shan": 4930,
      "uerga": 4931,
      "26321": 4932,
      "Indu": 4933,
      "coni": 4934,
      "feli": 4935,
      "quitec": 4936,
      "Gala": 4937,
      "neros": 4938,
      "Fernan": 4939,
      "Frances": 4940,
      "mori": 4941,
      "enlaces": 4942,
      "Palacios": 4943,
      "soft": 4944,
      "Santib": 4945,
      "wick": 4946,
      "Larra": 4947,
      "dolfo": 4948,
      "intercamb": 4949,
      "Manzanares": 4950,
      "nacionales": 4951,
      "elsentido": 4952,
      "Escritor": 4953,
      "hojainformativas": 4954,
      "Monasterio": 4955,
      "intercambio": 4956,
      "elsentidodelavida": 4957,
      "Dora": 4958,
      "Eula": 4959,
      "SA": 4960,
      "Sie": 4961,
      "Terra": 4962,
      "Vin": 4963,
      "Xo": 4964,
      "cE": 4965,
      "flo": 4966,
      "fru": 4967,
      "pru": 4968,
      "sos": 4969,
      "wf": 4970,
      "Ġ99": 4971,
      "lawn": 4972,
      "8075": 4973,
      "liana": 4974,
      "htmlsamp": 4975,
      "trodo": 4976,
      "leda": 4977,
      "inger": 4978,
      "2510": 4979,
      "2555": 4980,
      "2789": 4981,
      "1030": 4982,
      "2960": 4983,
      "2955": 4984,
      "2317": 4985,
      "6525": 4986,
      "6593": 4987,
      "1350": 4988,
      "1308": 4989,
      "1307": 4990,
      "6749": 4991,
      "6714": 4992,
      "4729": 4993,
      "4328": 4994,
      "4383": 4995,
      "8576": 4996,
      "4519": 4997,
      "4579": 4998,
      "4530": 4999,
      "2050": 5000,
      "8710": 5001,
      "8715": 5002,
      "8719": 5003,
      "8730": 5004,
      "8781": 5005,
      "4957": 5006,
      "8389": 5007,
      "3917": 5008,
      "1127": 5009,
      "2669": 5010,
      "2681": 5011,
      "0949": 5012,
      "7328": 5013,
      "5523": 5014,
      "7918": 5015,
      "7953": 5016,
      "6163": 5017,
      "meri": 5018,
      "ADDE": 5019,
      "1860": 5020,
      "EEBD": 5021,
      "castella": 5022,
      "7467": 5023,
      "2480": 5024,
      "2463": 5025,
      "2460": 5026,
      "8869": 5027,
      "ball": 5028,
      "1680": 5029,
      "7817": 5030,
      "CFFC": 5031,
      "3485": 5032,
      "8667": 5033,
      "Callejon": 5034,
      "Alto": 5035,
      "Ġ229": 5036,
      "bee": 5037,
      "uentrodo": 5038,
      "atriz": 5039,
      "jeres": 5040,
      "Dels": 5041,
      "Pozo": 5042,
      "Lima": 5043,
      "ries": 5044,
      "Medina": 5045,
      "Gochez": 5046,
      "Gomez": 5047,
      "Pinar": 5048,
      "gorio": 5049,
      "Calatra": 5050,
      "cursos": 5051,
      "health": 5052,
      "zarahealth": 5053,
      "encuentrodo": 5054,
      "barnices": 5055,
      "minios": 5056,
      "velazquezlar": 5057,
      "encuentrodominios": 5058,
      "4253": 5059,
      "Ana": 5060,
      "Abe": 5061,
      "Cure": 5062,
      "Der": 5063,
      "Edi": 5064,
      "Esta": 5065,
      "Fu": 5066,
      "Fra": 5067,
      "Gil": 5068,
      "Io": 5069,
      "Ian": 5070,
      "Jes": 5071,
      "Oti": 5072,
      "Pis": 5073,
      "Ren": 5074,
      "St": 5075,
      "Tro": 5076,
      "Vid": 5077,
      "ange": 5078,
      "acch": 5079,
      "bag": 5080,
      "bog": 5081,
      "ct": 5082,
      "cena": 5083,
      "fro": 5084,
      "fas": 5085,
      "idad": 5086,
      "kri": 5087,
      "mI": 5088,
      "meng": 5089,
      "plo": 5090,
      "sil": 5091,
      "tres": 5092,
      "uc": 5093,
      "yer": 5094,
      "yvi": 5095,
      "caro": 5096,
      "teu": 5097,
      "enig": 5098,
      "8020": 5099,
      "8083": 5100,
      "8000": 5101,
      "8091": 5102,
      "invent": 5103,
      "aggio": 5104,
      "ching": 5105,
      "chet": 5106,
      "dem": 5107,
      "loc": 5108,
      "lol": 5109,
      "apoli": 5110,
      "nou": 5111,
      "nold": 5112,
      "artes": 5113,
      "ageles": 5114,
      "day": 5115,
      "pas": 5116,
      "Cora": 5117,
      "Colon": 5118,
      "Mola": 5119,
      "real": 5120,
      "spon": 5121,
      "2546": 5122,
      "ort": 5123,
      "2767": 5124,
      "rici": 5125,
      "4047": 5126,
      "4018": 5127,
      "uras": 5128,
      "mot": 5129,
      "1043": 5130,
      "1090": 5131,
      "alt": 5132,
      "2910": 5133,
      "2989": 5134,
      "2903": 5135,
      "6360": 5136,
      "2329": 5137,
      "2343": 5138,
      "2395": 5139,
      "iola": 5140,
      "1767": 5141,
      "1755": 5142,
      "1790": 5143,
      "1701": 5144,
      "1510": 5145,
      "6588": 5146,
      "6985": 5147,
      "top": 5148,
      "4723": 5149,
      "1967": 5150,
      "2265": 5151,
      "4500": 5152,
      "6030": 5153,
      "8749": 5154,
      "8795": 5155,
      "4909": 5156,
      "4990": 5157,
      "tarra": 5158,
      "carritoparos": 5159,
      "3905": 5160,
      "1113": 5161,
      "2629": 5162,
      "0919": 5163,
      "09390": 5164,
      "FCDC": 5165,
      "2533": 5166,
      "4145": 5167,
      "4121": 5168,
      "BCBC": 5169,
      "6825": 5170,
      "6863": 5171,
      "med": 5172,
      "3009": 5173,
      "1867": 5174,
      "5959": 5175,
      "2446": 5176,
      "wdsl": 5177,
      "6647": 5178,
      "baldo": 5179,
      "ACED": 5180,
      "stitu": 5181,
      "1449": 5182,
      "1687": 5183,
      "5823": 5184,
      "5864": 5185,
      "9376": 5186,
      "stu": 5187,
      "4228": 5188,
      "8141": 5189,
      "8215": 5190,
      "3667": 5191,
      "tatanto": 5192,
      "iano": 5193,
      "ummer": 5194,
      "mina": 5195,
      "Almen": 5196,
      "Alfa": 5197,
      "fore": 5198,
      "bour": 5199,
      "manuel": 5200,
      "ismo": 5201,
      "neu": 5202,
      "Barto": 5203,
      "Barber": 5204,
      "Carras": 5205,
      "vers": 5206,
      "vert": 5207,
      "Seg": 5208,
      "Ġ118": 5209,
      "Valls": 5210,
      "terry": 5211,
      "uerte": 5212,
      "viaje": 5213,
      "heim": 5214,
      "guridad": 5215,
      "Pola": 5216,
      "constru": 5217,
      "yola": 5218,
      "raso": 5219,
      "drae": 5220,
      "oseguridad": 5221,
      "Galin": 5222,
      "Sola": 5223,
      "Pare": 5224,
      "Parra": 5225,
      "schn": 5226,
      "Quir": 5227,
      "Salva": 5228,
      "amontatanto": 5229,
      "37621": 5230,
      "presti": 5231,
      "tural": 5232,
      "Estrella": 5233,
      "pintor": 5234,
      "Praza": 5235,
      "devuelos": 5236,
      "espacio": 5237,
      "Catalan": 5238,
      "Nogue": 5239,
      "montamontatanto": 5240,
      "Huerta": 5241,
      "tantomontamontatanto": 5242,
      "easyvi": 5243,
      "Gonza": 5244,
      "Murillo": 5245,
      "Cerrato": 5246,
      "enigmati": 5247,
      "inventos": 5248,
      "agelespa": 5249,
      "construccion": 5250,
      "easyviaggio": 5251,
      "Bs": 5252,
      "Cus": 5253,
      "Fol": 5254,
      "Ili": 5255,
      "bw": 5256,
      "gq": 5257,
      "jen": 5258,
      "nsito": 5259,
      "tle": 5260,
      "uweb": 5261,
      "Ġ47": 5262,
      "Ġ48": 5263,
      "Ġ97": 5264,
      "Ġ276": 5265,
      "tiel": 5266,
      "8049": 5267,
      "8055": 5268,
      "8066": 5269,
      "agen": 5270,
      "colas": 5271,
      "zio": 5272,
      "deal": 5273,
      "llano": 5274,
      "llares": 5275,
      "kee": 5276,
      "Coma": 5277,
      "Coll": 5278,
      "kova": 5279,
      "playa": 5280,
      "2544": 5281,
      "2507": 5282,
      "dion": 5283,
      "2783": 5284,
      "4085": 5285,
      "4099": 5286,
      "cara": 5287,
      "logon": 5288,
      "2965": 5289,
      "2985": 5290,
      "2948": 5291,
      "2937": 5292,
      "2996": 5293,
      "6315": 5294,
      "6393": 5295,
      "miel": 5296,
      "1785": 5297,
      "1758": 5298,
      "1738": 5299,
      "1589": 5300,
      "1575": 5301,
      "1584": 5302,
      "6909": 5303,
      "6953": 5304,
      "2855": 5305,
      "tode": 5306,
      "todo": 5307,
      "6791": 5308,
      "4765": 5309,
      "4760": 5310,
      "4720": 5311,
      "4748": 5312,
      "4705": 5313,
      "1993": 5314,
      "1976": 5315,
      "2227": 5316,
      "2246": 5317,
      "4327": 5318,
      "4347": 5319,
      "4388": 5320,
      "8553": 5321,
      "idro": 5322,
      "4538": 5323,
      "4595": 5324,
      "2014": 5325,
      "8765": 5326,
      "8706": 5327,
      "4940": 5328,
      "8979": 5329,
      "8951": 5330,
      "EDCA": 5331,
      "1148": 5332,
      "0925": 5333,
      "0955": 5334,
      "4845": 5335,
      "EABD": 5336,
      "BDBA": 5337,
      "7329": 5338,
      "5516": 5339,
      "6117": 5340,
      "6187": 5341,
      "FBBD": 5342,
      "4410": 5343,
      "4446": 5344,
      "FFFD": 5345,
      "2443": 5346,
      "BEFC": 5347,
      "8810": 5348,
      "9933": 5349,
      "9995": 5350,
      "7743": 5351,
      "5715": 5352,
      "1229": 5353,
      "12170": 5354,
      "1611": 5355,
      "7880": 5356,
      "CFBD": 5357,
      "7146": 5358,
      "adul": 5359,
      "8145": 5360,
      "9775": 5361,
      "2502": 5362,
      "5485": 5363,
      "0125": 5364,
      "9828": 5365,
      "9126": 5366,
      "9263": 5367,
      "tort": 5368,
      "Bata": 5369,
      "Santander": 5370,
      "idal": 5371,
      "Tormes": 5372,
      "lasco": 5373,
      "2408": 5374,
      "Bergu": 5375,
      "Cerro": 5376,
      "Dios": 5377,
      "amarina": 5378,
      "Planelles": 5379,
      "Federico": 5380,
      "andomucho": 5381,
      "pintandomucho": 5382,
      "Calatrava": 5383,
      "+*": 5384,
      "=+": 5385,
      "Amar": 5386,
      "Ange": 5387,
      "Bul": 5388,
      "Buen": 5389,
      "Bena": 5390,
      "Bure": 5391,
      "Fin": 5392,
      "Ii": 5393,
      "Jard": 5394,
      "Lagu": 5395,
      "NG": 5396,
      "Pau": 5397,
      "Pai": 5398,
      "Plu": 5399,
      "Plasen": 5400,
      "RA": 5401,
      "RE": 5402,
      "Rai": 5403,
      "Rinc": 5404,
      "Yago": 5405,
      "alo": 5406,
      "aad": 5407,
      "cb": 5408,
      "cri": 5409,
      "cina": 5410,
      "ech": 5411,
      "ft": 5412,
      "fri": 5413,
      "ful": 5414,
      "gla": 5415,
      "gent": 5416,
      "gad": 5417,
      "hit": 5418,
      "isa": 5419,
      "kley": 5420,
      "mck": 5421,
      "pur": 5422,
      "spa": 5423,
      "star": 5424,
      "utu": 5425,
      "vento": 5426,
      "wing": 5427,
      "ying": 5428,
      "Ġ51": 5429,
      "Ġ278": 5430,
      "ony": 5431,
      "camonte": 5432,
      "tie": 5433,
      "lao": 5434,
      "lamar": 5435,
      "8085": 5436,
      "8033": 5437,
      "8094": 5438,
      "iner": 5439,
      "inst": 5440,
      "chai": 5441,
      "roy": 5442,
      "deux": 5443,
      "detea": 5444,
      "apps": 5445,
      "noti": 5446,
      "dau": 5447,
      "leen": 5448,
      "malla": 5449,
      "imon": 5450,
      "ntra": 5451,
      "compra": 5452,
      "ingenie": 5453,
      "Agueda": 5454,
      "spe": 5455,
      "2542": 5456,
      "ori": 5457,
      "mbi": 5458,
      "digi": 5459,
      "2794": 5460,
      "4023": 5461,
      "4045": 5462,
      "1060": 5463,
      "1033": 5464,
      "esta": 5465,
      "2983": 5466,
      "2998": 5467,
      "roso": 5468,
      "elcarrito": 5469,
      "6368": 5470,
      "2399": 5471,
      "2384": 5472,
      "2398": 5473,
      "6571": 5474,
      "1370": 5475,
      "tow": 5476,
      "ast": 5477,
      "6733": 5478,
      "6772": 5479,
      "6794": 5480,
      "4717": 5481,
      "4775": 5482,
      "4746": 5483,
      "4753": 5484,
      "4707": 5485,
      "1960": 5486,
      "1921": 5487,
      "1955": 5488,
      "1924": 5489,
      "2267": 5490,
      "4310": 5491,
      "4329": 5492,
      "4390": 5493,
      "4337": 5494,
      "4575": 5495,
      "4555": 5496,
      "4518": 5497,
      "4556": 5498,
      "6042": 5499,
      "2018": 5500,
      "2000": 5501,
      "2082": 5502,
      "8770": 5503,
      "4980": 5504,
      "4979": 5505,
      "Reza": 5506,
      "Redon": 5507,
      "8914": 5508,
      "8375": 5509,
      "8318": 5510,
      "8395": 5511,
      "vino": 5512,
      "1165": 5513,
      "1168": 5514,
      "FAl": 5515,
      "4817": 5516,
      "FDBD": 5517,
      "rac": 5518,
      "4117": 5519,
      "4610": 5520,
      "4628": 5521,
      "7950": 5522,
      "7990": 5523,
      "6113": 5524,
      "6149": 5525,
      "6840": 5526,
      "6841": 5527,
      "CDED": 5528,
      "5914": 5529,
      "4415": 5530,
      "4413": 5531,
      "2467": 5532,
      "2426": 5533,
      "7728": 5534,
      "1215": 5535,
      "1249": 5536,
      "1665": 5537,
      "9365": 5538,
      "6223": 5539,
      "2705": 5540,
      "2708": 5541,
      "3885": 5542,
      "0539": 5543,
      "7269": 5544,
      "7163": 5545,
      "mares": 5546,
      "8180": 5547,
      "3244": 5548,
      "8680": 5549,
      "8223": 5550,
      "sah": 5551,
      "0110": 5552,
      "taya": 5553,
      "portal": 5554,
      "0447": 5555,
      "9247": 5556,
      "valo": 5557,
      "Albor": 5558,
      "Saba": 5559,
      "delacompra": 5560,
      "ceo": 5561,
      "ceda": 5562,
      "Tamar": 5563,
      "Marina": 5564,
      "Marcos": 5565,
      "Marques": 5566,
      "torio": 5567,
      "Carden": 5568,
      "Vaz": 5569,
      "Guar": 5570,
      "Roma": 5571,
      "Romera": 5572,
      "luz": 5573,
      "Ġ114": 5574,
      "Pela": 5575,
      "sica": 5576,
      "25716": 5577,
      "ierro": 5578,
      "hiro": 5579,
      "muna": 5580,
      "Tera": 5581,
      "gua": 5582,
      "Juana": 5583,
      "reno": 5584,
      "Luna": 5585,
      "Ricar": 5586,
      "EFAF": 5587,
      "Tarciano": 5588,
      "Pilar": 5589,
      "chotel": 5590,
      "Gali": 5591,
      "Feix": 5592,
      "Parque": 5593,
      "guera": 5594,
      "rones": 5595,
      "chih": 5596,
      "chicas": 5597,
      "bral": 5598,
      "danie": 5599,
      "franca": 5600,
      "Fontan": 5601,
      "stock": 5602,
      "Puerta": 5603,
      "Peral": 5604,
      "worth": 5605,
      "tecno": 5606,
      "Blanco": 5607,
      "clichotel": 5608,
      "Sarri": 5609,
      "indote": 5610,
      "clubde": 5611,
      "yiutu": 5612,
      "escuela": 5613,
      "hispa": 5614,
      "Oficial": 5615,
      "cafedetea": 5616,
      "rocofer": 5617,
      "Bureba": 5618,
      "Laguna": 5619,
      "aadsl": 5620,
      "elcarritodelacompra": 5621,
      "yiutuve": 5622,
      "cafedeteatro": 5623,
      "5109": 5624,
      "7495": 5625,
      "Areg": 5626,
      "Bes": 5627,
      "Boni": 5628,
      "Rab": 5629,
      "Ste": 5630,
      "Sai": 5631,
      "Tri": 5632,
      "Villo": 5633,
      "Yo": 5634,
      "ata": 5635,
      "ader": 5636,
      "bm": 5637,
      "cd": 5638,
      "eco": 5639,
      "gell": 5640,
      "has": 5641,
      "hau": 5642,
      "hara": 5643,
      "hab": 5644,
      "mund": 5645,
      "sche": 5646,
      "sue": 5647,
      "tE": 5648,
      "Ġ80": 5649,
      "Ġ109": 5650,
      "tez": 5651,
      "tille": 5652,
      "8013": 5653,
      "8019": 5654,
      "8030": 5655,
      "court": 5656,
      "apart": 5657,
      "applications": 5658,
      "seum": 5659,
      "arapart": 5660,
      "necer": 5661,
      "leja": 5662,
      "serv": 5663,
      "server": 5664,
      "como": 5665,
      "Agua": 5666,
      "orio": 5667,
      "2757": 5668,
      "2716": 5669,
      "4049": 5670,
      "40906": 5671,
      "1049": 5672,
      "alcant": 5673,
      "2969": 5674,
      "2957": 5675,
      "2905": 5676,
      "elda": 5677,
      "6380": 5678,
      "2340": 5679,
      "2308": 5680,
      "1705": 5681,
      "1754": 5682,
      "1507": 5683,
      "1594": 5684,
      "6989": 5685,
      "1361": 5686,
      "2865": 5687,
      "2813": 5688,
      "2839": 5689,
      "2844": 5690,
      "2832": 5691,
      "6720": 5692,
      "6736": 5693,
      "1903": 5694,
      "1984": 5695,
      "2280": 5696,
      "2229": 5697,
      "2243": 5698,
      "4325": 5699,
      "4367": 5700,
      "4320": 5701,
      "8556": 5702,
      "4567": 5703,
      "6068": 5704,
      "6074": 5705,
      "6090": 5706,
      "2034": 5707,
      "8776": 5708,
      "8946": 5709,
      "8970": 5710,
      "8311": 5711,
      "8355": 5712,
      "8399": 5713,
      "EDFD": 5714,
      "3980": 5715,
      "3955": 5716,
      "2660": 5717,
      "2648": 5718,
      "FAFF": 5719,
      "EABA": 5720,
      "EADD": 5721,
      "EACF": 5722,
      "4160": 5723,
      "7599": 5724,
      "4663": 5725,
      "7367": 5726,
      "7061": 5727,
      "6125": 5728,
      "FEBA": 5729,
      "CDBC": 5730,
      "CDBD": 5731,
      "1810": 5732,
      "5028": 5733,
      "5039": 5734,
      "5008": 5735,
      "2424": 5736,
      "BEED": 5737,
      "lesias": 5738,
      "5355": 5739,
      "53439": 5740,
      "6629": 5741,
      "6664": 5742,
      "5720": 5743,
      "5775": 5744,
      "1629": 5745,
      "6240": 5746,
      "3547": 5747,
      "8110": 5748,
      "8422": 5749,
      "8411": 5750,
      "0763": 5751,
      "port": 5752,
      "9265": 5753,
      "nano": 5754,
      "zaragoza": 5755,
      "mand": 5756,
      "runa": 5757,
      "mien": 5758,
      "Mass": 5759,
      "Segarra": 5760,
      "fic": 5761,
      "vasi": 5762,
      "museum": 5763,
      "CADD": 5764,
      "ners": 5765,
      "guejos": 5766,
      "brera": 5767,
      "Vilanova": 5768,
      "uret": 5769,
      "Ildef": 5770,
      "ubilla": 5771,
      "Isidro": 5772,
      "Silva": 5773,
      "light": 5774,
      "Merced": 5775,
      "Picabea": 5776,
      "Orion": 5777,
      "Nelma": 5778,
      "castigadas": 5779,
      "idalgo": 5780,
      "arapartners": 5781,
      "alcantarapartners": 5782,
      "5805": 5783,
      "Ai": 5784,
      "Aro": 5785,
      "Anti": 5786,
      "Angel": 5787,
      "Big": 5788,
      "Borges": 5789,
      "Cn": 5790,
      "Cr": 5791,
      "Fal": 5792,
      "Gara": 5793,
      "Han": 5794,
      "Iver": 5795,
      "Jun": 5796,
      "MI": 5797,
      "Mul": 5798,
      "Pres": 5799,
      "Sur": 5800,
      "Ses": 5801,
      "Sad": 5802,
      "Tres": 5803,
      "Trist": 5804,
      "Ue": 5805,
      "Un": 5806,
      "Ull": 5807,
      "Vol": 5808,
      "aL": 5809,
      "ade": 5810,
      "aquin": 5811,
      "atorre": 5812,
      "cO": 5813,
      "cent": 5814,
      "cke": 5815,
      "df": 5816,
      "dt": 5817,
      "ej": 5818,
      "ev": 5819,
      "eti": 5820,
      "fm": 5821,
      "fon": 5822,
      "fia": 5823,
      "fig": 5824,
      "gn": 5825,
      "hh": 5826,
      "hart": 5827,
      "ip": 5828,
      "iv": 5829,
      "josa": 5830,
      "kir": 5831,
      "lun": 5832,
      "nau": 5833,
      "ob": 5834,
      "ot": 5835,
      "pk": 5836,
      "pit": 5837,
      "sam": 5838,
      "ual": 5839,
      "uta": 5840,
      "udio": 5841,
      "ward": 5842,
      "xa": 5843,
      "xavi": 5844,
      "yk": 5845,
      "zone": 5846,
      "Ġ49": 5847,
      "Ġ230": 5848,
      "cado": 5849,
      "caju": 5850,
      "carell": 5851,
      "tex": 5852,
      "tida": 5853,
      "tilla": 5854,
      "ticas": 5855,
      "8087": 5856,
      "8009": 5857,
      "8021": 5858,
      "8007": 5859,
      "inn": 5860,
      "intro": 5861,
      "into": 5862,
      "instein": 5863,
      "inless": 5864,
      "tions": 5865,
      "checo": 5866,
      "htran": 5867,
      "rob": 5868,
      "rod": 5869,
      "ect": 5870,
      "dele": 5871,
      "lot": 5872,
      "lola": 5873,
      "lome": 5874,
      "sevilla": 5875,
      "arl": 5876,
      "ars": 5877,
      "aren": 5878,
      "mail": 5879,
      "pado": 5880,
      "iment": 5881,
      "uet": 5882,
      "ueca": 5883,
      "sera": 5884,
      "serrat": 5885,
      "Cabal": 5886,
      "Caba": 5887,
      "Cane": 5888,
      "Lac": 5889,
      "Cho": 5890,
      "arsessionid": 5891,
      "redo": 5892,
      "25253": 5893,
      "ube": 5894,
      "cipal": 5895,
      "mbla": 5896,
      "dista": 5897,
      "2727": 5898,
      "2719": 5899,
      "2745": 5900,
      "2753": 5901,
      "2790": 5902,
      "rard": 5903,
      "rima": 5904,
      "4026": 5905,
      "4007": 5906,
      "pell": 5907,
      "petit": 5908,
      "movil": 5909,
      "carlos": 5910,
      "fort": 5911,
      "and": 5912,
      "anni": 5913,
      "1053": 5914,
      "1052": 5915,
      "estel": 5916,
      "ald": 5917,
      "aly": 5918,
      "alfa": 5919,
      "2933": 5920,
      "2936": 5921,
      "6311": 5922,
      "6326": 5923,
      "6334": 5924,
      "2348": 5925,
      "2373": 5926,
      "2355": 5927,
      "2300": 5928,
      "2354": 5929,
      "1763": 5930,
      "1769": 5931,
      "1719": 5932,
      "1783": 5933,
      "1761": 5934,
      "1730": 5935,
      "1704": 5936,
      "1509": 5937,
      "1530": 5938,
      "1550": 5939,
      "1544": 5940,
      "1592": 5941,
      "6522": 5942,
      "6505": 5943,
      "6576": 5944,
      "6919": 5945,
      "6939": 5946,
      "6977": 5947,
      "6957": 5948,
      "2827": 5949,
      "2847": 5950,
      "2889": 5951,
      "2899": 5952,
      "2896": 5953,
      "4725": 5954,
      "4763": 5955,
      "4785": 5956,
      "4799": 5957,
      "4762": 5958,
      "1927": 5959,
      "1904": 5960,
      "2208": 5961,
      "4323": 5962,
      "4360": 5963,
      "4344": 5964,
      "4549": 5965,
      "4583": 5966,
      "4599": 5967,
      "4557": 5968,
      "6078": 5969,
      "6071": 5970,
      "6095": 5971,
      "8782": 5972,
      "4947": 5973,
      "4919": 5974,
      "4974": 5975,
      "Reg": 5976,
      "iones": 5977,
      "8921": 5978,
      "8349": 5979,
      "8348": 5980,
      "8379": 5981,
      "8361": 5982,
      "EDFB": 5983,
      "carritos": 5984,
      "3910": 5985,
      "3983": 5986,
      "2620": 5987,
      "2626": 5988,
      "0911": 5989,
      "4880": 5990,
      "4815": 5991,
      "4862": 5992,
      "BAAA": 5993,
      "BACC": 5994,
      "EACC": 5995,
      "4169": 5996,
      "7047": 5997,
      "5521": 5998,
      "6169": 5999,
      "6820": 6000,
      "meu": 6001,
      "CDa": 6002,
      "1818": 6003,
      "5928": 6004,
      "5067": 6005,
      "5089": 6006,
      "EEBC": 6007,
      "CAAA": 6008,
      "7463": 6009,
      "7420": 6010,
      "jano": 6011,
      "2448": 6012,
      "0011": 6013,
      "6465": 6014,
      "8849": 6015,
      "6666": 6016,
      "7720": 6017,
      "7778": 6018,
      "1280": 6019,
      "1269": 6020,
      "1243": 6021,
      "DAEF": 6022,
      "0320": 6023,
      "5815": 6024,
      "7849": 6025,
      "cordoba": 6026,
      "0530": 6027,
      "incorrectassessionid": 6028,
      "mara": 6029,
      "8189": 6030,
      "mene": 6031,
      "portugal": 6032,
      "9865": 6033,
      "9443": 6034,
      "Deu": 6035,
      "Alman": 6036,
      "bao": 6037,
      "bach": 6038,
      "baco": 6039,
      "bous": 6040,
      "delvo": 6041,
      "creacion": 6042,
      "crement": 6043,
      "gama": 6044,
      "fotosero": 6045,
      "joubi": 6046,
      "joudi": 6047,
      "veh": 6048,
      "velo": 6049,
      "beria": 6050,
      "Gual": 6051,
      "Guadiana": 6052,
      "Bay": 6053,
      "Roble": 6054,
      "lutsch": 6055,
      "shaw": 6056,
      "ablan": 6057,
      "Perio": 6058,
      "Montor": 6059,
      "linas": 6060,
      "Torrent": 6061,
      "Infan": 6062,
      "design": 6063,
      "hipe": 6064,
      "1652": 6065,
      "billa": 6066,
      "bijoubi": 6067,
      "Boix": 6068,
      "stainless": 6069,
      "Rambla": 6070,
      "Pobla": 6071,
      "BBAC": 6072,
      "Lihue": 6073,
      "Pico": 6074,
      "gener": 6075,
      "guete": 6076,
      "ferente": 6077,
      "villas": 6078,
      "Ferr": 6079,
      "Ferran": 6080,
      "cosur": 6081,
      "amiento": 6082,
      "Lozana": 6083,
      "arem": 6084,
      "brun": 6085,
      "grim": 6086,
      "Astor": 6087,
      "Fonti": 6088,
      "Virma": 6089,
      "Gracia": 6090,
      "ajuntamentbcn": 6091,
      "Munt": 6092,
      "andaluz": 6093,
      "Zabala": 6094,
      "relli": 6095,
      "Paloma": 6096,
      "Ign": 6097,
      "travelzone": 6098,
      "surcosur": 6099,
      "sanchezgordo": 6100,
      "FunNG": 6101,
      "santacruz": 6102,
      "Aguilar": 6103,
      "slations": 6104,
      "Martinez": 6105,
      "strial": 6106,
      "Esgueva": 6107,
      "aplasticacordoba": 6108,
      "Residen": 6109,
      "Hornillos": 6110,
      "prensah": 6111,
      "cirugiaplasticacordoba": 6112,
      "telogis": 6113,
      "Corominas": 6114,
      "Industrial": 6115,
      "Fernando": 6116,
      "dfault": 6117,
      "xavipetit": 6118,
      "cajucar": 6119,
      "htranslations": 6120,
      "carritosessionid": 6121,
      "delvoto": 6122,
      "fotoseroticas": 6123,
      "joudiferente": 6124,
      "lutscht": 6125,
      "bijoubijoudiferente": 6126,
      "FunNGames": 6127,
      "santacruzdelvoto": 6128,
      "Residencial": 6129,
      "prensahp": 6130,
      "2637": 6131,
      "3270": 6132,
      "8837": 6133,
      "9805": 6134,
      "Alar": 6135,
      "Amor": 6136,
      "CFDA": 6137,
      "DBCF": 6138,
      "Gio": 6139,
      "Hello": 6140,
      "Ica": 6141,
      "Mau": 6142,
      "Rra": 6143,
      "Sing": 6144,
      "Zuri": 6145,
      "due": 6146,
      "doso": 6147,
      "ffer": 6148,
      "hur": 6149,
      "jO": 6150,
      "mt": 6151,
      "ole": 6152,
      "pper": 6153,
      "Ġ93": 6154,
      "Ġ54": 6155,
      "Ġ105": 6156,
      "teros": 6157,
      "osat": 6158,
      "8039": 6159,
      "chev": 6160,
      "demas": 6161,
      "males": 6162,
      "Molinos": 6163,
      "Molt": 6164,
      "2515": 6165,
      "thy": 6166,
      "2755": 6167,
      "2700": 6168,
      "2798": 6169,
      "4077": 6170,
      "1025": 6171,
      "1015": 6172,
      "1026": 6173,
      "1070": 6174,
      "1007": 6175,
      "alma": 6176,
      "2988": 6177,
      "6340": 6178,
      "6310": 6179,
      "6369": 6180,
      "6320": 6181,
      "6389": 6182,
      "6371": 6183,
      "1715": 6184,
      "6580": 6185,
      "6563": 6186,
      "6569": 6187,
      "6560": 6188,
      "6553": 6189,
      "6506": 6190,
      "6946": 6191,
      "6955": 6192,
      "6930": 6193,
      "1325": 6194,
      "1369": 6195,
      "1368": 6196,
      "1338": 6197,
      "1352": 6198,
      "2893": 6199,
      "2831": 6200,
      "2854": 6201,
      "6754": 6202,
      "4789": 6203,
      "4770": 6204,
      "1907": 6205,
      "2248": 6206,
      "2266": 6207,
      "2207": 6208,
      "4379": 6209,
      "4353": 6210,
      "8503": 6211,
      "8532": 6212,
      "4570": 6213,
      "4578": 6214,
      "4508": 6215,
      "4594": 6216,
      "6049": 6217,
      "6089": 6218,
      "6038": 6219,
      "8775": 6220,
      "4984": 6221,
      "8967": 6222,
      "8953": 6223,
      "ECCF": 6224,
      "2610": 6225,
      "0943": 6226,
      "0908": 6227,
      "FCCB": 6228,
      "BADA": 6229,
      "FDEA": 6230,
      "FDDD": 6231,
      "EAEC": 6232,
      "EAFE": 6233,
      "4144": 6234,
      "BCFE": 6235,
      "7573": 6236,
      "7505": 6237,
      "3315": 6238,
      "4687": 6239,
      "2185": 6240,
      "7370": 6241,
      "7359": 6242,
      "7068": 6243,
      "6144": 6244,
      "6166": 6245,
      "6827": 6246,
      "6885": 6247,
      "FBFA": 6248,
      "ADCE": 6249,
      "5083": 6250,
      "5059": 6251,
      "EEFA": 6252,
      "EEFE": 6253,
      "AAAB": 6254,
      "DDEA": 6255,
      "DDAA": 6256,
      "DDDC": 6257,
      "2429": 6258,
      "2422": 6259,
      "2411": 6260,
      "0070": 6261,
      "0059": 6262,
      "6440": 6263,
      "6447": 6264,
      "8885": 6265,
      "5384": 6266,
      "6617": 6267,
      "12230": 6268,
      "1410": 6269,
      "1463": 6270,
      "1643": 6271,
      "0389": 6272,
      "5810": 6273,
      "5869": 6274,
      "9078": 6275,
      "2702": 6276,
      "DEBE": 6277,
      "3817": 6278,
      "3440": 6279,
      "0563": 6280,
      "AFFB": 6281,
      "3539": 6282,
      "4249": 6283,
      "9567": 6284,
      "good": 6285,
      "8619": 6286,
      "3640": 6287,
      "9129": 6288,
      "zarasal": 6289,
      "unnego": 6290,
      "onomos": 6291,
      "gaz": 6292,
      "6130": 6293,
      "veria": 6294,
      "miami": 6295,
      "Roman": 6296,
      "Ġ112": 6297,
      "sitienes": 6298,
      "19119": 6299,
      "1407": 6300,
      "quillo": 6301,
      "mujeres": 6302,
      "cula": 6303,
      "montijo": 6304,
      "trin": 6305,
      "webtienes": 6306,
      "Casar": 6307,
      "Mila": 6308,
      "Garros": 6309,
      "ugh": 6310,
      "salvador": 6311,
      "Castille": 6312,
      "wska": 6313,
      "world": 6314,
      "gesaut": 6315,
      "Sagra": 6316,
      "Gregorio": 6317,
      "Villalba": 6318,
      "audiosat": 6319,
      "Alfonso": 6320,
      "showcars": 6321,
      "unawebtienes": 6322,
      "catalog": 6323,
      "Teodo": 6324,
      "Sebastian": 6325,
      "009319": 6326,
      "fernandoso": 6327,
      "Eulalia": 6328,
      "Batalla": 6329,
      "Aregall": 6330,
      "Zurita": 6331,
      "zarasalud": 6332,
      "unnegocio": 6333,
      "sitienesunawebtienes": 6334,
      "gesautonomos": 6335,
      "fernandosoto": 6336,
      "sitienesunawebtienesunnegocio": 6337,
      "2253": 6338,
      "3393": 6339,
      "5603": 6340,
      "8459": 6341,
      "Bis": 6342,
      "Daci": 6343,
      "Em": 6344,
      "Et": 6345,
      "Eme": 6346,
      "Fs": 6347,
      "Flu": 6348,
      "FFDA": 6349,
      "Fron": 6350,
      "Igu": 6351,
      "Ivan": 6352,
      "Jer": 6353,
      "Ker": 6354,
      "Met": 6355,
      "Maga": 6356,
      "NO": 6357,
      "Nie": 6358,
      "Ras": 6359,
      "Sub": 6360,
      "Session": 6361,
      "Up": 6362,
      "Van": 6363,
      "Xa": 6364,
      "Zul": 6365,
      "bv": 6366,
      "bz": 6367,
      "bide": 6368,
      "bai": 6369,
      "cul": 6370,
      "cbb": 6371,
      "drid": 6372,
      "dier": 6373,
      "dine": 6374,
      "eber": 6375,
      "fab": 6376,
      "fut": 6377,
      "gados": 6378,
      "gaudio": 6379,
      "iS": 6380,
      "iu": 6381,
      "igo": 6382,
      "ibe": 6383,
      "itia": 6384,
      "jani": 6385,
      "juela": 6386,
      "kie": 6387,
      "lr": 6388,
      "lles": 6389,
      "mn": 6390,
      "nA": 6391,
      "nag": 6392,
      "ndi": 6393,
      "ote": 6394,
      "oth": 6395,
      "pon": 6396,
      "psy": 6397,
      "rI": 6398,
      "sme": 6399,
      "sun": 6400,
      "scho": 6401,
      "sierra": 6402,
      "sign": 6403,
      "tam": 6404,
      "ute": 6405,
      "ulla": 6406,
      "vor": 6407,
      "vad": 6408,
      "zza": 6409,
      "zosa": 6410,
      "Ġ107": 6411,
      "Ġ117": 6412,
      "Ġ104": 6413,
      "capa": 6414,
      "caser": 6415,
      "temp": 6416,
      "tig": 6417,
      "tintas": 6418,
      "lat": 6419,
      "lamo": 6420,
      "labert": 6421,
      "lagon": 6422,
      "8037": 6423,
      "agos": 6424,
      "chis": 6425,
      "cob": 6426,
      "rok": 6427,
      "rom": 6428,
      "rofessional": 6429,
      "deven": 6430,
      "dette": 6431,
      "detran": 6432,
      "lobar": 6433,
      "lock": 6434,
      "aper": 6435,
      "noz": 6436,
      "noop": 6437,
      "hostrofessional": 6438,
      "ngos": 6439,
      "agement": 6440,
      "dam": 6441,
      "dano": 6442,
      "dani": 6443,
      "dades": 6444,
      "leg": 6445,
      "mao": 6446,
      "mau": 6447,
      "masa": 6448,
      "maher": 6449,
      "mauro": 6450,
      "panta": 6451,
      "ental": 6452,
      "Cale": 6453,
      "Caso": 6454,
      "Caban": 6455,
      "llana": 6456,
      "comp": 6457,
      "Molina": 6458,
      "spers": 6459,
      "2590": 6460,
      "engo": 6461,
      "mbri": 6462,
      "dig": 6463,
      "discon": 6464,
      "2743": 6465,
      "2744": 6466,
      "dow": 6467,
      "4043": 6468,
      "4039": 6469,
      "4050": 6470,
      "4088": 6471,
      "4098": 6472,
      "peines": 6473,
      "anueva": 6474,
      "1027": 6475,
      "1036": 6476,
      "ester": 6477,
      "albe": 6478,
      "alyn": 6479,
      "alsele": 6480,
      "2949": 6481,
      "2961": 6482,
      "ssen": 6483,
      "2318": 6484,
      "2305": 6485,
      "1741": 6486,
      "1770": 6487,
      "1774": 6488,
      "1788": 6489,
      "1799": 6490,
      "1520": 6491,
      "1511": 6492,
      "1593": 6493,
      "1538": 6494,
      "15613": 6495,
      "promotor": 6496,
      "6540": 6497,
      "6514": 6498,
      "6535": 6499,
      "6591": 6500,
      "6965": 6501,
      "6960": 6502,
      "6951": 6503,
      "1311": 6504,
      "1399": 6505,
      "1335": 6506,
      "1306": 6507,
      "2875": 6508,
      "2814": 6509,
      "2871": 6510,
      "2851": 6511,
      "asa": 6512,
      "aste": 6513,
      "6795": 6514,
      "4749": 6515,
      "4733": 6516,
      "1910": 6517,
      "1920": 6518,
      "1901": 6519,
      "2269": 6520,
      "4309": 6521,
      "4396": 6522,
      "4509": 6523,
      "4551": 6524,
      "4504": 6525,
      "6028": 6526,
      "6011": 6527,
      "6033": 6528,
      "6006": 6529,
      "nica": 6530,
      "2098": 6531,
      "8767": 6532,
      "4927": 6533,
      "4970": 6534,
      "4935": 6535,
      "4908": 6536,
      "4936": 6537,
      "8915": 6538,
      "8987": 6539,
      "8990": 6540,
      "8993": 6541,
      "8906": 6542,
      "adillo": 6543,
      "8363": 6544,
      "8343": 6545,
      "8383": 6546,
      "8357": 6547,
      "8397": 6548,
      "EDFA": 6549,
      "ECEC": 6550,
      "ECCB": 6551,
      "3920": 6552,
      "3999": 6553,
      "1185": 6554,
      "2689": 6555,
      "2612": 6556,
      "FABA": 6557,
      "0900": 6558,
      "0993": 6559,
      "0991": 6560,
      "FCDD": 6561,
      "4823": 6562,
      "4849": 6563,
      "EABF": 6564,
      "7542": 6565,
      "3329": 6566,
      "BDCF": 6567,
      "4689": 6568,
      "4646": 6569,
      "4612": 6570,
      "2160": 6571,
      "2144": 6572,
      "7363": 6573,
      "7383": 6574,
      "7080": 6575,
      "7963": 6576,
      "6143": 6577,
      "mee": 6578,
      "ADAF": 6579,
      "3084": 6580,
      "1882": 6581,
      "5937": 6582,
      "5906": 6583,
      "5009": 6584,
      "BBEF": 6585,
      "CAED": 6586,
      "CAFE": 6587,
      "7487": 6588,
      "AACE": 6589,
      "CCEC": 6590,
      "2415": 6591,
      "amor": 6592,
      "5358": 6593,
      "7740": 6594,
      "7716": 6595,
      "ACBD": 6596,
      "5744": 6597,
      "5774": 6598,
      "5788": 6599,
      "EBFC": 6600,
      "1645": 6601,
      "03579": 6602,
      "EFFC": 6603,
      "EFBD": 6604,
      "9070": 6605,
      "ABFC": 6606,
      "toscbb": 6607,
      "6244": 6608,
      "CFBA": 6609,
      "tasdetran": 6610,
      "3419": 6611,
      "7115": 6612,
      "7120": 6613,
      "3587": 6614,
      "3530": 6615,
      "3516": 6616,
      "9510": 6617,
      "7610": 6618,
      "gol": 6619,
      "goog": 6620,
      "3725": 6621,
      "3127": 6622,
      "3145": 6623,
      "0165": 6624,
      "Pascu": 6625,
      "5185": 6626,
      "tanga": 6627,
      "dul": 6628,
      "0685": 6629,
      "Confirmarany": 6630,
      "natra": 6631,
      "Query": 6632,
      "valos": 6633,
      "Sada": 6634,
      "tudio": 6635,
      "bout": 6636,
      "body": 6637,
      "many": 6638,
      "management": 6639,
      "adan": 6640,
      "cedo": 6641,
      "cejo": 6642,
      "gado": 6643,
      "nex": 6644,
      "Arg": 6645,
      "Arge": 6646,
      "Arquitec": 6647,
      "Barca": 6648,
      "Rox": 6649,
      "Romero": 6650,
      "Nazar": 6651,
      "Navas": 6652,
      "Navac": 6653,
      "links": 6654,
      "terra": 6655,
      "baran": 6656,
      "barebac": 6657,
      "iertoscbb": 6658,
      "desinventos": 6659,
      "10320": 6660,
      "jean": 6661,
      "hibrid": 6662,
      "1406": 6663,
      "Delgados": 6664,
      "Boli": 6665,
      "osalagon": 6666,
      "6838": 6667,
      "Corta": 6668,
      "Riba": 6669,
      "Ribes": 6670,
      "aspe": 6671,
      "DEDE": 6672,
      "ACDF": 6673,
      "garri": 6674,
      "AFAA": 6675,
      "FEDE": 6676,
      "juguete": 6677,
      "75953439": 6678,
      "Teresa": 6679,
      "drogas": 6680,
      "grafos": 6681,
      "yuan": 6682,
      "lones": 6683,
      "banking": 6684,
      "fred": 6685,
      "llasled": 6686,
      "Fuentes": 6687,
      "areina": 6688,
      "Joaquin": 6689,
      "afiel": 6690,
      "madri": 6691,
      "Gior": 6692,
      "Gilabert": 6693,
      "Port": 6694,
      "Portal": 6695,
      "Portillo": 6696,
      "Calz": 6697,
      "Llobet": 6698,
      "nette": 6699,
      "euro": 6700,
      "Masia": 6701,
      "soyandaluz": 6702,
      "ecialsele": 6703,
      "Alameda": 6704,
      "Baldo": 6705,
      "Escultor": 6706,
      "especialsele": 6707,
      "Calaf": 6708,
      "ventura": 6709,
      "Palau": 6710,
      "nardo": 6711,
      "Santiago": 6712,
      "Hoyo": 6713,
      "grandesinventos": 6714,
      "multasdetran": 6715,
      "telegrafos": 6716,
      "unidades": 6717,
      "professionalhost": 6718,
      "Adelqui": 6719,
      "Correos": 6720,
      "Correspon": 6721,
      "arroyo": 6722,
      "flex": 6723,
      "Nuevo": 6724,
      "Asad": 6725,
      "sexta": 6726,
      "Pineda": 6727,
      "young": 6728,
      "tilacion": 6729,
      "filtr": 6730,
      "ringringrent": 6731,
      "cubiertoscbb": 6732,
      "campa": 6733,
      "paviment": 6734,
      "Abajo": 6735,
      "evelin": 6736,
      "imenez": 6737,
      "Calixt": 6738,
      "Marcelino": 6739,
      "alquilerpanta": 6740,
      "privatebanking": 6741,
      "Baixada": 6742,
      "Ruiz": 6743,
      "stylestudio": 6744,
      "forohh": 6745,
      "softstylestudio": 6746,
      "Curell": 6747,
      "artesania": 6748,
      "Segura": 6749,
      "Gonzalez": 6750,
      "dealcaraz": 6751,
      "deuxmanagement": 6752,
      "Bigorra": 6753,
      "introito": 6754,
      "bacoespecialsele": 6755,
      "Periodista": 6756,
      "Ignacio": 6757,
      "00931975953439": 6758,
      "Dacil": 6759,
      "sierradealcaraz": 6760,
      "tintasultravioleta": 6761,
      "deventilacion": 6762,
      "spersonales": 6763,
      "promotorareina": 6764,
      "google": 6765,
      "hibridos": 6766,
      "juguetespersonales": 6767,
      "unidadesdeventilacion": 6768,
      "Correspondencia": 6769,
      "pavimentosalagon": 6770,
      "alquilerpantallasled": 6771,
      "bacoespecialselecci": 6772,
      "0093197595343977": 6773,
      "0279": 6774,
      "2190": 6775,
      "3118": 6776,
      "3390": 6777,
      "5155": 6778,
      "5118": 6779,
      "8835": 6780,
      "9279": 6781,
      "9703": 6782,
      "Ade": 6783,
      "BFCC": 6784,
      "But": 6785,
      "EECA": 6786,
      "Ida": 6787,
      "Ken": 6788,
      "Sas": 6789,
      "bd": 6790,
      "cum": 6791,
      "cOR": 6792,
      "dim": 6793,
      "eon": 6794,
      "eme": 6795,
      "jess": 6796,
      "mio": 6797,
      "moso": 6798,
      "ness": 6799,
      "Ġ85": 6800,
      "Ġ84": 6801,
      "Ġ36": 6802,
      "Ġ133": 6803,
      "Ġ127": 6804,
      "8044": 6805,
      "lida": 6806,
      "chini": 6807,
      "apro": 6808,
      "leSamples": 6809,
      "Cobo": 6810,
      "bley": 6811,
      "tpis": 6812,
      "2576": 6813,
      "2592": 6814,
      "2764": 6815,
      "2734": 6816,
      "2736": 6817,
      "4005": 6818,
      "40007": 6819,
      "mobley": 6820,
      "forte": 6821,
      "anu": 6822,
      "ankawa": 6823,
      "1058": 6824,
      "1096": 6825,
      "2967": 6826,
      "2930": 6827,
      "2999": 6828,
      "2931": 6829,
      "6327": 6830,
      "6385": 6831,
      "6348": 6832,
      "6361": 6833,
      "6395": 6834,
      "1720": 6835,
      "1764": 6836,
      "1784": 6837,
      "1796": 6838,
      "1583": 6839,
      "1590": 6840,
      "6910": 6841,
      "6947": 6842,
      "6943": 6843,
      "1379": 6844,
      "1303": 6845,
      "1395": 6846,
      "1394": 6847,
      "1302": 6848,
      "2885": 6849,
      "6769": 6850,
      "6709": 6851,
      "6716": 6852,
      "4741": 6853,
      "4730": 6854,
      "4790": 6855,
      "4736": 6856,
      "ilus": 6857,
      "1940": 6858,
      "1915": 6859,
      "1959": 6860,
      "1981": 6861,
      "2217": 6862,
      "4366": 6863,
      "4301": 6864,
      "8510": 6865,
      "8570": 6866,
      "8559": 6867,
      "4569": 6868,
      "4566": 6869,
      "4590": 6870,
      "6083": 6871,
      "6018": 6872,
      "6050": 6873,
      "6056": 6874,
      "6031": 6875,
      "2080": 6876,
      "8709": 6877,
      "8792": 6878,
      "4987": 6879,
      "4939": 6880,
      "4926": 6881,
      "Rebo": 6882,
      "ionari": 6883,
      "8933": 6884,
      "8930": 6885,
      "8390": 6886,
      "8384": 6887,
      "8356": 6888,
      "EDBC": 6889,
      "EDBD": 6890,
      "ECAD": 6891,
      "3939": 6892,
      "1111": 6893,
      "1124": 6894,
      "2622": 6895,
      "FACE": 6896,
      "0952": 6897,
      "FCBD": 6898,
      "FCFE": 6899,
      "2536": 6900,
      "48220": 6901,
      "BAEA": 6902,
      "BAAC": 6903,
      "FDBA": 6904,
      "EABB": 6905,
      "4185": 6906,
      "BCFA": 6907,
      "BCDA": 6908,
      "7560": 6909,
      "3379": 6910,
      "3344": 6911,
      "3300": 6912,
      "3371": 6913,
      "BDFD": 6914,
      "BDAD": 6915,
      "BDDD": 6916,
      "2129": 6917,
      "2143": 6918,
      "2120": 6919,
      "2164": 6920,
      "2186": 6921,
      "5534": 6922,
      "7987": 6923,
      "7930": 6924,
      "6110": 6925,
      "6865": 6926,
      "6819": 6927,
      "6814": 6928,
      "medilla": 6929,
      "CDAB": 6930,
      "ADCD": 6931,
      "ADDB": 6932,
      "3029": 6933,
      "3085": 6934,
      "3059": 6935,
      "1865": 6936,
      "1887": 6937,
      "5933": 6938,
      "5055": 6939,
      "5003": 6940,
      "4465": 6941,
      "4467": 6942,
      "4485": 6943,
      "4445": 6944,
      "CAFB": 6945,
      "FFEA": 6946,
      "CCEE": 6947,
      "2425": 6948,
      "2417": 6949,
      "8846": 6950,
      "5310": 6951,
      "5373": 6952,
      "9914": 6953,
      "6687": 6954,
      "6626": 6955,
      "1445": 6956,
      "BFED": 6957,
      "9325": 6958,
      "ABBC": 6959,
      "6246": 6960,
      "CFED": 6961,
      "3868": 6962,
      "AFBC": 6963,
      "7144": 6964,
      "3512": 6965,
      "9540": 6966,
      "0883": 6967,
      "7625": 6968,
      "8120": 6969,
      "3715": 6970,
      "3229": 6971,
      "8423": 6972,
      "5429": 6973,
      "5443": 6974,
      "5163": 6975,
      "tado": 6976,
      "9189": 6977,
      "9219": 6978,
      "Alhama": 6979,
      "Sang": 6980,
      "1103": 6981,
      "gatpis": 6982,
      "nea": 6983,
      "veda": 6984,
      "stei": 6985,
      "berta": 6986,
      "40943": 6987,
      "40926": 6988,
      "17826": 6989,
      "quis": 6990,
      "2401": 6991,
      "6858": 6992,
      "48940": 6993,
      "1698": 6994,
      "Polo": 6995,
      "BEAA": 6996,
      "BEAF": 6997,
      "conac": 6998,
      "BBAE": 6999,
      "13641": 7000,
      "BFAB": 7001,
      "EECE": 7002,
      "FEAA": 7003,
      "81539": 7004,
      "Joh": 7005,
      "Forn": 7006,
      "Oliva": 7007,
      "enlaplaya": 7008,
      "Application": 7009,
      "Benito": 7010,
      "Simple": 7011,
      "Figuer": 7012,
      "Crisp": 7013,
      "49372725": 7014,
      "santcugatpis": 7015,
      "cursosenlaplaya": 7016,
      "SingleSamples": 7017,
      "ankawaelda": 7018,
      "ilusionari": 7019,
      "santcugatpisos": 7020,
      "ilusionarium": 7021,
      "0809": 7022,
      "1499": 7023,
      "4179": 7024,
      "4199": 7025,
      "5699": 7026,
      "5877": 7027,
      "7609": 7028,
      "7697": 7029,
      "7209": 7030,
      "7436": 7031,
      "9457": 7032,
      "9458": 7033,
      "9853": 7034,
      "=_": 7035,
      "Angu": 7036,
      "Amp": 7037,
      "Abi": 7038,
      "ABAB": 7039,
      "ABDB": 7040,
      "Asen": 7041,
      "BO": 7042,
      "Bl": 7043,
      "Bad": 7044,
      "Bet": 7045,
      "BFBF": 7046,
      "Ball": 7047,
      "Cc": 7048,
      "Cl": 7049,
      "Cen": 7050,
      "Cro": 7051,
      "Cle": 7052,
      "CFCF": 7053,
      "Crist": 7054,
      "Dona": 7055,
      "DFCC": 7056,
      "Euro": 7057,
      "Emanuel": 7058,
      "Fd": 7059,
      "Fro": 7060,
      "FBAB": 7061,
      "FBDD": 7062,
      "Fuerte": 7063,
      "Fidalgo": 7064,
      "Hos": 7065,
      "Hal": 7066,
      "Ino": 7067,
      "Jau": 7068,
      "Ko": 7069,
      "Lim": 7070,
      "Llan": 7071,
      "Llar": 7072,
      "Meng": 7073,
      "Mac": 7074,
      "March": 7075,
      "Pur": 7076,
      "Pam": 7077,
      "Rd": 7078,
      "Rua": 7079,
      "Rut": 7080,
      "Rueda": 7081,
      "Sh": 7082,
      "Son": 7083,
      "Sig": 7084,
      "Tap": 7085,
      "Tur": 7086,
      "Tier": 7087,
      "Yaz": 7088,
      "Ze": 7089,
      "aer": 7090,
      "aas": 7091,
      "ave": 7092,
      "ather": 7093,
      "bau": 7094,
      "bad": 7095,
      "beck": 7096,
      "cie": 7097,
      "cros": 7098,
      "cles": 7099,
      "clar": 7100,
      "dk": 7101,
      "dura": 7102,
      "ep": 7103,
      "eres": 7104,
      "fen": 7105,
      "fau": 7106,
      "fiel": 7107,
      "facio": 7108,
      "gt": 7109,
      "get": 7110,
      "gard": 7111,
      "ici": 7112,
      "ist": 7113,
      "iza": 7114,
      "iga": 7115,
      "iteria": 7116,
      "jor": 7117,
      "kle": 7118,
      "kur": 7119,
      "kal": 7120,
      "kai": 7121,
      "kat": 7122,
      "knight": 7123,
      "lI": 7124,
      "nel": 7125,
      "nil": 7126,
      "nut": 7127,
      "opel": 7128,
      "pus": 7129,
      "para": 7130,
      "pho": 7131,
      "run": 7132,
      "rubi": 7133,
      "stro": 7134,
      "sor": 7135,
      "sul": 7136,
      "smi": 7137,
      "ski": 7138,
      "sley": 7139,
      "tts": 7140,
      "uch": 7141,
      "uso": 7142,
      "udia": 7143,
      "yas": 7144,
      "zin": 7145,
      "Ġ7": 7146,
      "Ġ102": 7147,
      "cali": 7148,
      "cath": 7149,
      "camente": 7150,
      "tere": 7151,
      "till": 7152,
      "tipos": 7153,
      "tifica": 7154,
      "tillero": 7155,
      "8036": 7156,
      "8054": 7157,
      "liti": 7158,
      "lien": 7159,
      "lier": 7160,
      "lidad": 7161,
      "agun": 7162,
      "Constan": 7163,
      "chs": 7164,
      "chid": 7165,
      "chat": 7166,
      "zia": 7167,
      "rog": 7168,
      "rojo": 7169,
      "roig": 7170,
      "rocke": 7171,
      "ecia": 7172,
      "det": 7173,
      "dese": 7174,
      "desp": 7175,
      "desa": 7176,
      "deenlaces": 7177,
      "deaspe": 7178,
      "dedrogas": 7179,
      "noc": 7180,
      "sex": 7181,
      "seas": 7182,
      "sepul": 7183,
      "artfor": 7184,
      "dana": 7185,
      "leon": 7186,
      "mach": 7187,
      "mada": 7188,
      "Cato": 7189,
      "Casta": 7190,
      "Colo": 7191,
      "Comer": 7192,
      "Moral": 7193,
      "rega": 7194,
      "retor": 7195,
      "reras": 7196,
      "regui": 7197,
      "2523": 7198,
      "2577": 7199,
      "tha": 7200,
      "thru": 7201,
      "engi": 7202,
      "citi": 7203,
      "gida": 7204,
      "2715": 7205,
      "2713": 7206,
      "2760": 7207,
      "27503": 7208,
      "rian": 7209,
      "ribas": 7210,
      "ritte": 7211,
      "4067": 7212,
      "4033": 7213,
      "4044": 7214,
      "moon": 7215,
      "anza": 7216,
      "1020": 7217,
      "1087": 7218,
      "1059": 7219,
      "1024": 7220,
      "1093": 7221,
      "1084": 7222,
      "esi": 7223,
      "estar": 7224,
      "escu": 7225,
      "2946": 7226,
      "2900": 7227,
      "2995": 7228,
      "6363": 7229,
      "6382": 7230,
      "63154": 7231,
      "2306": 7232,
      "1780": 7233,
      "1757": 7234,
      "1778": 7235,
      "1762": 7236,
      "1772": 7237,
      "1737": 7238,
      "1706": 7239,
      "1565": 7240,
      "1549": 7241,
      "1534": 7242,
      "6503": 7243,
      "6534": 7244,
      "6531": 7245,
      "6959": 7246,
      "6936": 7247,
      "1328": 7248,
      "1312": 7249,
      "1391": 7250,
      "13195": 7251,
      "2820": 7252,
      "2870": 7253,
      "2857": 7254,
      "2852": 7255,
      "tores": 7256,
      "6718": 7257,
      "4787": 7258,
      "47182": 7259,
      "1909": 7260,
      "1937": 7261,
      "2247": 7262,
      "2206": 7263,
      "4387": 7264,
      "4589": 7265,
      "4571": 7266,
      "4506": 7267,
      "6027": 7268,
      "6009": 7269,
      "6036": 7270,
      "2030": 7271,
      "2093": 7272,
      "2071": 7273,
      "8758": 7274,
      "8778": 7275,
      "8791": 7276,
      "4903": 7277,
      "4907": 7278,
      "4994": 7279,
      "Rebes": 7280,
      "8359": 7281,
      "8335": 7282,
      "carritoSet": 7283,
      "ECFC": 7284,
      "ECBE": 7285,
      "3975": 7286,
      "3958": 7287,
      "1123": 7288,
      "1183": 7289,
      "2649": 7290,
      "2616": 7291,
      "FAa": 7292,
      "FAn": 7293,
      "FAFC": 7294,
      "FACD": 7295,
      "FABB": 7296,
      "0974": 7297,
      "FCe": 7298,
      "FCEA": 7299,
      "4860": 7300,
      "4883": 7301,
      "4826": 7302,
      "BAFD": 7303,
      "BAAB": 7304,
      "FDCC": 7305,
      "EAEA": 7306,
      "BCAD": 7307,
      "BCDB": 7308,
      "7575": 7309,
      "3375": 7310,
      "3373": 7311,
      "3305": 7312,
      "BDCD": 7313,
      "BDAC": 7314,
      "BDBF": 7315,
      "4613": 7316,
      "4616": 7317,
      "7009": 7318,
      "5529": 7319,
      "5513": 7320,
      "5543": 7321,
      "5520": 7322,
      "5511": 7323,
      "5562": 7324,
      "7955": 7325,
      "7903": 7326,
      "6186": 7327,
      "6818": 7328,
      "FBBB": 7329,
      "FBEB": 7330,
      "media": 7331,
      "FEFC": 7332,
      "CDBA": 7333,
      "CDBE": 7334,
      "3040": 7335,
      "5980": 7336,
      "EEED": 7337,
      "EEBA": 7338,
      "CACD": 7339,
      "CACC": 7340,
      "cast": 7341,
      "FFED": 7342,
      "7480": 7343,
      "DDFA": 7344,
      "CCFD": 7345,
      "2469": 7346,
      "2445": 7347,
      "0029": 7348,
      "6449": 7349,
      "6448": 7350,
      "5350": 7351,
      "9989": 7352,
      "auten": 7353,
      "stina": 7354,
      "EBFD": 7355,
      "1219": 7356,
      "1425": 7357,
      "DCEE": 7358,
      "DCEB": 7359,
      "DAEC": 7360,
      "BFFA": 7361,
      "5863": 7362,
      "7843": 7363,
      "7883": 7364,
      "9014": 7365,
      "ABEA": 7366,
      "6215": 7367,
      "2704": 7368,
      "CFFD": 7369,
      "CEFC": 7370,
      "CEBE": 7371,
      "3865": 7372,
      "DBFB": 7373,
      "stac": 7374,
      "4227": 7375,
      "4269": 7376,
      "4248": 7377,
      "9570": 7378,
      "08470": 7379,
      "08281": 7380,
      "adon": 7381,
      "3714": 7382,
      "3263": 7383,
      "8627": 7384,
      "8610": 7385,
      "8615": 7386,
      "8668": 7387,
      "8460": 7388,
      "8420": 7389,
      "leras": 7390,
      "9741": 7391,
      "sang": 7392,
      "9611": 7393,
      "5167": 7394,
      "5183": 7395,
      "tano": 7396,
      "tamb": 7397,
      "taber": 7398,
      "9115": 7399,
      "0415": 7400,
      "0245": 7401,
      "Manzano": 7402,
      "umos": 7403,
      "nato": 7404,
      "zale": 7405,
      "minia": 7406,
      "aire": 7407,
      "Alta": 7408,
      "Alonso": 7409,
      "Alfredo": 7410,
      "Salo": 7411,
      "tuno": 7412,
      "vich": 7413,
      "vita": 7414,
      "visco": 7415,
      "errada": 7416,
      "dels": 7417,
      "delmar": 7418,
      "adal": 7419,
      "bull": 7420,
      "anya": 7421,
      "nero": 7422,
      "Sando": 7423,
      "Paz": 7424,
      "Arj": 7425,
      "vedo": 7426,
      "Barran": 7427,
      "bek": 7428,
      "Caridad": 7429,
      "Cartaya": 7430,
      "Vali": 7431,
      "Vahid": 7432,
      "Ġ283": 7433,
      "Guz": 7434,
      "Roc": 7435,
      "verd": 7436,
      "Max": 7437,
      "Mayo": 7438,
      "Segun": 7439,
      "shin": 7440,
      "fitn": 7441,
      "orato": 7442,
      "landa": 7443,
      "ebs": 7444,
      "Montan": 7445,
      "ters": 7446,
      "Villafranca": 7447,
      "40973": 7448,
      "barra": 7449,
      "4436": 7450,
      "18518": 7451,
      "kay": 7452,
      "hang": 7453,
      "2430": 7454,
      "Zarzosa": 7455,
      "6493": 7456,
      "1636": 7457,
      "muni": 7458,
      "mucha": 7459,
      "gula": 7460,
      "Juli": 7461,
      "48081539": 7462,
      "4894": 7463,
      "pola": 7464,
      "vens": 7465,
      "vente": 7466,
      "vender": 7467,
      "DEAC": 7468,
      "AADA": 7469,
      "rasa": 7470,
      "busti": 7471,
      "EEAA": 7472,
      "mond": 7473,
      "Berro": 7474,
      "Anda": 7475,
      "Andre": 7476,
      "CCDF": 7477,
      "47887": 7478,
      "fero": 7479,
      "garda": 7480,
      "4492": 7481,
      "quilla": 7482,
      "FEAC": 7483,
      "Sobre": 7484,
      "Begon": 7485,
      "Casal": 7486,
      "Millan": 7487,
      "Garri": 7488,
      "secret": 7489,
      "Cela": 7490,
      "sandras": 7491,
      "Campan": 7492,
      "Godo": 7493,
      "herminia": 7494,
      "brad": 7495,
      "brador": 7496,
      "Herrera": 7497,
      "Cervell": 7498,
      "madura": 7499,
      "Gian": 7500,
      "Pont": 7501,
      "linger": 7502,
      "aciondeh": 7503,
      "Abeno": 7504,
      "paris": 7505,
      "melli": 7506,
      "ynes": 7507,
      "coaching": 7508,
      "green": 7509,
      "ciosdeaspe": 7510,
      "Florida": 7511,
      "tencia": 7512,
      "Escriba": 7513,
      "gestion": 7514,
      "magritte": 7515,
      "imoteo": 7516,
      "palma": 7517,
      "Quintanilla": 7518,
      "Gorosti": 7519,
      "sindns": 7520,
      "Planells": 7521,
      "Barriada": 7522,
      "busca": 7523,
      "indomo": 7524,
      "baybay": 7525,
      "Bernaus": 7526,
      "Acei": 7527,
      "Cruces": 7528,
      "Funes": 7529,
      "Medio": 7530,
      "srl": 7531,
      "gilda": 7532,
      "feller": 7533,
      "Pedrosa": 7534,
      "viajesnacionales": 7535,
      "Peregr": 7536,
      "Comte": 7537,
      "Mercado": 7538,
      "Bosco": 7539,
      "Victoria": 7540,
      "Eduardo": 7541,
      "comerciosdeaspe": 7542,
      "hotelestop": 7543,
      "Principal": 7544,
      "Zurbaran": 7545,
      "intercambiodeenlaces": 7546,
      "Pisuerga": 7547,
      "silver": 7548,
      "apolicial": 7549,
      "93761167": 7550,
      "espaciopintor": 7551,
      "enigmatico": 7552,
      "Bullones": 7553,
      "lamarsrl": 7554,
      "Feixas": 7555,
      "chihchie": 7556,
      "braltar": 7557,
      "tecnoindomo": 7558,
      "hispadis": 7559,
      "Aires": 7560,
      "Volta": 7561,
      "rimama": 7562,
      "velocidad": 7563,
      "ablanca": 7564,
      "Metauten": 7565,
      "mauroman": 7566,
      "Casola": 7567,
      "albeiteria": 7568,
      "multasdetransito": 7569,
      "filtraciondeh": 7570,
      "Europa": 7571,
      "nutrimama": 7572,
      "smith": 7573,
      "tiposdedrogas": 7574,
      "rockefeller": 7575,
      "artforall": 7576,
      "viscotek": 7577,
      "VahidReza": 7578,
      "Segundo": 7579,
      "fitness": 7580,
      "4808153993761167": 7581,
      "Begonia": 7582,
      "sandrasummer": 7583,
      "Abenoza": 7584,
      "hotelestopsecret": 7585,
      "filtraciondehumos": 7586,
      "0473": 7587,
      "2293": 7588,
      "2457": 7589,
      "3853": 7590,
      "4457": 7591,
      "7686": 7592,
      "7176": 7593,
      "8157": 7594,
      "8682": 7595,
      "AECA": 7596,
      "AFCD": 7597,
      "Bau": 7598,
      "BBCD": 7599,
      "BFDB": 7600,
      "CECA": 7601,
      "DECA": 7602,
      "DEBF": 7603,
      "EBAB": 7604,
      "EFEF": 7605,
      "TA": 7606,
      "Zub": 7607,
      "able": 7608,
      "bI": 7609,
      "btr": 7610,
      "ctu": 7611,
      "ile": 7612,
      "lE": 7613,
      "over": 7614,
      "rbel": 7615,
      "tamarina": 7616,
      "uv": 7617,
      "uza": 7618,
      "well": 7619,
      "zcon": 7620,
      "tiS": 7621,
      "8070": 7622,
      "8057": 7623,
      "8034": 7624,
      "lias": 7625,
      "libro": 7626,
      "xmlfile": 7627,
      "deap": 7628,
      "deimagenes": 7629,
      "delle": 7630,
      "apren": 7631,
      "cales": 7632,
      "maxi": 7633,
      "maest": 7634,
      "oka": 7635,
      "kola": 7636,
      "rejo": 7637,
      "2584": 7638,
      "diar": 7639,
      "direc": 7640,
      "2733": 7641,
      "2737": 7642,
      "4069": 7643,
      "cardo": 7644,
      "erp": 7645,
      "erbd": 7646,
      "2963": 7647,
      "2984": 7648,
      "6346": 7649,
      "6356": 7650,
      "2363": 7651,
      "2367": 7652,
      "2374": 7653,
      "2397": 7654,
      "1739": 7655,
      "1753": 7656,
      "1714": 7657,
      "1734": 7658,
      "1702": 7659,
      "1563": 7660,
      "1548": 7661,
      "1533": 7662,
      "1564": 7663,
      "6529": 7664,
      "6513": 7665,
      "6541": 7666,
      "65185": 7667,
      "6950": 7668,
      "6978": 7669,
      "6934": 7670,
      "1348": 7671,
      "1375": 7672,
      "2828": 7673,
      "2859": 7674,
      "2876": 7675,
      "tomo": 7676,
      "asi": 7677,
      "6719": 7678,
      "6721": 7679,
      "6793": 7680,
      "4710": 7681,
      "4779": 7682,
      "4795": 7683,
      "4708": 7684,
      "1999": 7685,
      "1966": 7686,
      "1914": 7687,
      "1972": 7688,
      "1992": 7689,
      "2225": 7690,
      "2203": 7691,
      "4381": 7692,
      "4336": 7693,
      "8563": 7694,
      "8599": 7695,
      "8534": 7696,
      "8554": 7697,
      "8506": 7698,
      "idon": 7699,
      "4540": 7700,
      "4547": 7701,
      "4543": 7702,
      "4526": 7703,
      "4559": 7704,
      "4576": 7705,
      "4531": 7706,
      "4507": 7707,
      "4501": 7708,
      "6025": 7709,
      "6063": 7710,
      "6055": 7711,
      "6077": 7712,
      "6001": 7713,
      "2015": 7714,
      "2090": 7715,
      "2008": 7716,
      "8723": 7717,
      "8788": 7718,
      "4959": 7719,
      "4958": 7720,
      "8996": 7721,
      "8309": 7722,
      "EDEB": 7723,
      "EDDC": 7724,
      "EDCF": 7725,
      "EDDB": 7726,
      "ECCC": 7727,
      "ECDA": 7728,
      "1110": 7729,
      "1141": 7730,
      "1188": 7731,
      "2615": 7732,
      "2662": 7733,
      "FCFA": 7734,
      "FCBA": 7735,
      "FCAD": 7736,
      "BAEC": 7737,
      "BABC": 7738,
      "BADD": 7739,
      "FDCD": 7740,
      "FDBB": 7741,
      "EACE": 7742,
      "4124": 7743,
      "BCFC": 7744,
      "BCCD": 7745,
      "BCCE": 7746,
      "7553": 7747,
      "3363": 7748,
      "BDED": 7749,
      "BDFE": 7750,
      "BDEE": 7751,
      "4625": 7752,
      "4660": 7753,
      "4620": 7754,
      "2163": 7755,
      "2165": 7756,
      "2162": 7757,
      "731646": 7758,
      "5566": 7759,
      "5592": 7760,
      "7940": 7761,
      "7920": 7762,
      "7933": 7763,
      "6121": 7764,
      "6843": 7765,
      "FBFF": 7766,
      "FBBF": 7767,
      "CDCD": 7768,
      "CDAD": 7769,
      "CDCC": 7770,
      "CDDA": 7771,
      "CDEF": 7772,
      "CDAF": 7773,
      "ADED": 7774,
      "3010": 7775,
      "3089": 7776,
      "3000": 7777,
      "3071": 7778,
      "1825": 7779,
      "1828": 7780,
      "5970": 7781,
      "5057": 7782,
      "5036": 7783,
      "4447": 7784,
      "4449": 7785,
      "BBEC": 7786,
      "BBFA": 7787,
      "BBEA": 7788,
      "CACA": 7789,
      "CACF": 7790,
      "FFFE": 7791,
      "FFFF": 7792,
      "7427": 7793,
      "DDDF": 7794,
      "2427": 7795,
      "0040": 7796,
      "0075": 7797,
      "0082": 7798,
      "amel": 7799,
      "BEBD": 7800,
      "5366": 7801,
      "6663": 7802,
      "6668": 7803,
      "7744": 7804,
      "ACBA": 7805,
      "5718": 7806,
      "1667": 7807,
      "DAFC": 7808,
      "DABF": 7809,
      "0360": 7810,
      "EFFA": 7811,
      "5828": 7812,
      "5844": 7813,
      "5816": 7814,
      "7869": 7815,
      "ABFA": 7816,
      "ABBD": 7817,
      "CFEC": 7818,
      "CEBA": 7819,
      "3422": 7820,
      "0549": 7821,
      "AEED": 7822,
      "DBED": 7823,
      "CBFB": 7824,
      "7147": 7825,
      "7124": 7826,
      "4219": 7827,
      "0817": 7828,
      "08673": 7829,
      "7669": 7830,
      "7687": 7831,
      "7641": 7832,
      "gois": 7833,
      "8146": 7834,
      "8228": 7835,
      "3147": 7836,
      "3148": 7837,
      "9725": 7838,
      "0770": 7839,
      "santa": 7840,
      "5417": 7841,
      "0189": 7842,
      "5165": 7843,
      "5215": 7844,
      "5213": 7845,
      "Queral": 7846,
      "tucasa": 7847,
      "untes": 7848,
      "botille": 7849,
      "deltamarina": 7850,
      "rupa": 7851,
      "ush": 7852,
      "Bazan": 7853,
      "ight": 7854,
      "Matar": 7855,
      "fila": 7856,
      "Legui": 7857,
      "19144": 7858,
      "ridge": 7859,
      "Ġ567": 7860,
      "derParser": 7861,
      "2633": 7862,
      "house": 7863,
      "kaya": 7864,
      "1295": 7865,
      "hem": 7866,
      "2403": 7867,
      "4831": 7868,
      "2134": 7869,
      "2131917": 7870,
      "67080": 7871,
      "2699": 7872,
      "CEDD": 7873,
      "FFAF": 7874,
      "EFDE": 7875,
      "EEDA": 7876,
      "EEDE": 7877,
      "BEDF": 7878,
      "25880": 7879,
      "OrderParser": 7880,
      "DFAB": 7881,
      "Sole": 7882,
      "weblogi": 7883,
      "ried": 7884,
      "archivodeimagenes": 7885,
      "7832": 7886,
      "drezcon": 7887,
      "arela": 7888,
      "Velasco": 7889,
      "Ponce": 7890,
      "ffel": 7891,
      "llard": 7892,
      "7642131917": 7893,
      "31227": 7894,
      "bury": 7895,
      "Rosario": 7896,
      "deaestu": 7897,
      "Balles": 7898,
      "willi": 7899,
      "posas": 7900,
      "ajedrezcon": 7901,
      "devall": 7902,
      "Barrios": 7903,
      "music": 7904,
      "hotels": 7905,
      "Fructu": 7906,
      "Cinco": 7907,
      "matache": 7908,
      "juegois": 7909,
      "orderParser": 7910,
      "Zorrilla": 7911,
      "Compres": 7912,
      "Siete": 7913,
      "barnicesuv": 7914,
      "velazquezlarra": 7915,
      "suecas": 7916,
      "Ildefonso": 7917,
      "Casaramon": 7918,
      "cumming": 7919,
      "eonon": 7920,
      "63154198": 7921,
      "librodeap": 7922,
      "aprendeaestu": 7923,
      "maestros": 7924,
      "botilleria": 7925,
      "weblogic": 7926,
      "7642131917731646": 7927,
      "ajedrezconmaestros": 7928,
      "librodeapuntes": 7929,
      "aprendeaestudiar": 7930,
      "0253": 7931,
      "0270": 7932,
      "0586": 7933,
      "1800": 7934,
      "1455": 7935,
      "2237": 7936,
      "3156": 7937,
      "3188": 7938,
      "4197": 7939,
      "4298": 7940,
      "5159": 7941,
      "6190": 7942,
      "6195": 7943,
      "8434": 7944,
      "9630": 7945,
      "9690": 7946,
      "9437": 7947,
      "Aca": 7948,
      "Alo": 7949,
      "Alen": 7950,
      "ABCA": 7951,
      "ABBE": 7952,
      "Atico": 7953,
      "Bui": 7954,
      "Bier": 7955,
      "BFFF": 7956,
      "Bages": 7957,
      "Cie": 7958,
      "Cid": 7959,
      "Cig": 7960,
      "DI": 7961,
      "Dos": 7962,
      "Dag": 7963,
      "Die": 7964,
      "Dion": 7965,
      "DBCD": 7966,
      "DECD": 7967,
      "DBEB": 7968,
      "EJ": 7969,
      "Ele": 7970,
      "EBCD": 7971,
      "EBBE": 7972,
      "Einstein": 7973,
      "FX": 7974,
      "Fue": 7975,
      "FAg": 7976,
      "FFBE": 7977,
      "FBCF": 7978,
      "Gines": 7979,
      "Har": 7980,
      "Iri": 7981,
      "Ingel": 7982,
      "Koh": 7983,
      "Lon": 7984,
      "Lagar": 7985,
      "Mie": 7986,
      "Nal": 7987,
      "Nadal": 7988,
      "Ost": 7989,
      "Oren": 7990,
      "Ojos": 7991,
      "Ojeda": 7992,
      "Pru": 7993,
      "Pall": 7994,
      "Pini": 7995,
      "Rad": 7996,
      "Rida": 7997,
      "Sera": 7998,
      "Usa": 7999,
      "Ves": 8000,
      "Xi": 8001,
      "Yes": 8002,
      "Yom": 8003,
      "Yuli": 8004,
      "Zala": 8005,
      "ajo": 8006,
      "blog": 8007,
      "bun": 8008,
      "buen": 8009,
      "baul": 8010,
      "cim": 8011,
      "cuer": 8012,
      "ceni": 8013,
      "dO": 8014,
      "dur": 8015,
      "dEr": 8016,
      "ddie": 8017,
      "fun": 8018,
      "fuente": 8019,
      "gO": 8020,
      "gm": 8021,
      "gros": 8022,
      "genes": 8023,
      "guen": 8024,
      "ghe": 8025,
      "gger": 8026,
      "hac": 8027,
      "hof": 8028,
      "hora": 8029,
      "ich": 8030,
      "icho": 8031,
      "jp": 8032,
      "kno": 8033,
      "kan": 8034,
      "kil": 8035,
      "mcf": 8036,
      "nos": 8037,
      "nin": 8038,
      "nina": 8039,
      "nier": 8040,
      "oc": 8041,
      "ov": 8042,
      "pec": 8043,
      "page": 8044,
      "pino": 8045,
      "pia": 8046,
      "parem": 8047,
      "rincon": 8048,
      "sservi": 8049,
      "ssext": 8050,
      "tag": 8051,
      "tge": 8052,
      "vA": 8053,
      "whit": 8054,
      "xled": 8055,
      "zos": 8056,
      "zzy": 8057,
      "zheim": 8058,
      "Ġ21": 8059,
      "Ġ130": 8060,
      "Ġ126": 8061,
      "Ġ131": 8062,
      "Ġ291": 8063,
      "cass": 8064,
      "tir": 8065,
      "tier": 8066,
      "tiful": 8067,
      "osan": 8068,
      "ossantcu": 8069,
      "encasa": 8070,
      "enmenorca": 8071,
      "ladigi": 8072,
      "8043": 8073,
      "8079": 8074,
      "8090": 8075,
      "list": 8076,
      "lita": 8077,
      "liver": 8078,
      "inar": 8079,
      "inas": 8080,
      "inmadrid": 8081,
      "agn": 8082,
      "chap": 8083,
      "chil": 8084,
      "chetti": 8085,
      "cox": 8086,
      "coche": 8087,
      "copi": 8088,
      "colis": 8089,
      "cochea": 8090,
      "roe": 8091,
      "romani": 8092,
      "ecio": 8093,
      "deu": 8094,
      "delos": 8095,
      "lora": 8096,
      "noly": 8097,
      "seosa": 8098,
      "arco": 8099,
      "arema": 8100,
      "latelia": 8101,
      "dav": 8102,
      "dalena": 8103,
      "dambo": 8104,
      "iello": 8105,
      "mass": 8106,
      "mauri": 8107,
      "pablo": 8108,
      "ntar": 8109,
      "uesto": 8110,
      "Cani": 8111,
      "Caye": 8112,
      "llah": 8113,
      "key": 8114,
      "kess": 8115,
      "LaN": 8116,
      "Corado": 8117,
      "queo": 8118,
      "Moran": 8119,
      "Molin": 8120,
      "Morera": 8121,
      "Char": 8122,
      "Linares": 8123,
      "rear": 8124,
      "reto": 8125,
      "remi": 8126,
      "refran": 8127,
      "remadura": 8128,
      "spor": 8129,
      "spina": 8130,
      "2525": 8131,
      "2517": 8132,
      "2503": 8133,
      "2593": 8134,
      "tho": 8135,
      "thie": 8136,
      "mbard": 8137,
      "gico": 8138,
      "gilio": 8139,
      "dise": 8140,
      "2799": 8141,
      "2738": 8142,
      "2795": 8143,
      "dom": 8144,
      "dola": 8145,
      "rius": 8146,
      "risi": 8147,
      "4093": 8148,
      "urch": 8149,
      "pea": 8150,
      "peda": 8151,
      "pera": 8152,
      "pearl": 8153,
      "lene": 8154,
      "cargo": 8155,
      "eras": 8156,
      "erlich": 8157,
      "ande": 8158,
      "1012": 8159,
      "1001": 8160,
      "1094": 8161,
      "register": 8162,
      "alter": 8163,
      "2981": 8164,
      "ssandra": 8165,
      "ssori": 8166,
      "elbaul": 8167,
      "elrincon": 8168,
      "6319": 8169,
      "6335": 8170,
      "6381": 8171,
      "6301": 8172,
      "2319": 8173,
      "2349": 8174,
      "2326": 8175,
      "2330": 8176,
      "2302": 8177,
      "1733": 8178,
      "1746": 8179,
      "1756": 8180,
      "1731": 8181,
      "17650": 8182,
      "1513": 8183,
      "1587": 8184,
      "1591": 8185,
      "6523": 8186,
      "6557": 8187,
      "6538": 8188,
      "6980": 8189,
      "6940": 8190,
      "6921": 8191,
      "6937": 8192,
      "1310": 8193,
      "1367": 8194,
      "1397": 8195,
      "2867": 8196,
      "2833": 8197,
      "2879": 8198,
      "2868": 8199,
      "2862": 8200,
      "2884": 8201,
      "28757": 8202,
      "togra": 8203,
      "6764": 8204,
      "6737": 8205,
      "6784": 8206,
      "4773": 8207,
      "4744": 8208,
      "4774": 8209,
      "4734": 8210,
      "4702": 8211,
      "ilda": 8212,
      "ille": 8213,
      "1929": 8214,
      "19110": 8215,
      "19901": 8216,
      "2211": 8217,
      "4330": 8218,
      "4399": 8219,
      "4382": 8220,
      "8560": 8221,
      "8533": 8222,
      "8505": 8223,
      "8537": 8224,
      "8501": 8225,
      "8598": 8226,
      "8552": 8227,
      "idt": 8228,
      "idor": 8229,
      "4511": 8230,
      "6019": 8231,
      "6076": 8232,
      "6051": 8233,
      "6002": 8234,
      "nik": 8235,
      "2060": 8236,
      "2075": 8237,
      "2081": 8238,
      "8727": 8239,
      "8785": 8240,
      "8748": 8241,
      "8761": 8242,
      "8744": 8243,
      "Reca": 8244,
      "ionador": 8245,
      "8989": 8246,
      "8988": 8247,
      "8321": 8248,
      "8331": 8249,
      "8392": 8250,
      "EDBA": 8251,
      "EDvar": 8252,
      "ECBC": 8253,
      "ECCA": 8254,
      "ECEF": 8255,
      "ECAB": 8256,
      "1143": 8257,
      "1189": 8258,
      "1161": 8259,
      "1116": 8260,
      "2640": 8261,
      "2646": 8262,
      "2621": 8263,
      "2642": 8264,
      "FAAB": 8265,
      "0996": 8266,
      "09610": 8267,
      "09119": 8268,
      "FCBB": 8269,
      "FCCA": 8270,
      "FCBE": 8271,
      "FCDE": 8272,
      "4819": 8273,
      "4884": 8274,
      "BABA": 8275,
      "BADE": 8276,
      "FDBE": 8277,
      "FDAC": 8278,
      "raulla": 8279,
      "EAFA": 8280,
      "EAFB": 8281,
      "EAFF": 8282,
      "EADB": 8283,
      "4119": 8284,
      "4148": 8285,
      "4141": 8286,
      "7565": 8287,
      "7549": 8288,
      "7546": 8289,
      "3367": 8290,
      "3382": 8291,
      "BDEB": 8292,
      "4641": 8293,
      "4664": 8294,
      "2167": 8295,
      "7373": 8296,
      "7314": 8297,
      "7053": 8298,
      "7031": 8299,
      "7007": 8300,
      "5560": 8301,
      "5573": 8302,
      "5577": 8303,
      "5556": 8304,
      "7969": 8305,
      "7979": 8306,
      "7988": 8307,
      "6123": 8308,
      "6164": 8309,
      "68417": 8310,
      "FBBE": 8311,
      "CDFD": 8312,
      "CDCF": 8313,
      "ADFE": 8314,
      "ADAD": 8315,
      "1846": 8316,
      "5969": 8317,
      "5973": 8318,
      "5930": 8319,
      "5998": 8320,
      "5016": 8321,
      "50247": 8322,
      "4423": 8323,
      "4419": 8324,
      "EEFC": 8325,
      "CAEC": 8326,
      "CAEF": 8327,
      "casablanca": 8328,
      "AAEE": 8329,
      "AAAC": 8330,
      "AAEF": 8331,
      "DDCF": 8332,
      "2449": 8333,
      "0010": 8334,
      "0065": 8335,
      "0020": 8336,
      "6429": 8337,
      "64416": 8338,
      "ams": 8339,
      "BEFD": 8340,
      "9910": 8341,
      "9909": 8342,
      "9959": 8343,
      "99469": 8344,
      "6649": 8345,
      "7726": 8346,
      "ACEE": 8347,
      "1480": 8348,
      "1469": 8349,
      "1420": 8350,
      "1448": 8351,
      "1421": 8352,
      "DCFA": 8353,
      "1685": 8354,
      "0355": 8355,
      "0357": 8356,
      "5819": 8357,
      "7822": 8358,
      "9069": 8359,
      "9350": 8360,
      "corp": 8361,
      "tosa": 8362,
      "6260": 8363,
      "dena": 8364,
      "denas": 8365,
      "CFFB": 8366,
      "DEFA": 8367,
      "DEEA": 8368,
      "iran": 8369,
      "DBBA": 8370,
      "DBBD": 8371,
      "7265": 8372,
      "incorrectasp": 8373,
      "AFFA": 8374,
      "7141": 8375,
      "3510": 8376,
      "stad": 8377,
      "stras": 8378,
      "4217": 8379,
      "maria": 8380,
      "0880": 8381,
      "7646": 8382,
      "7661": 8383,
      "adrones": 8384,
      "gola": 8385,
      "goper": 8386,
      "3729": 8387,
      "8640": 8388,
      "8643": 8389,
      "8621": 8390,
      "8413": 8391,
      "lers": 8392,
      "llet": 8393,
      "5687": 8394,
      "9779": 8395,
      "solu": 8396,
      "sab": 8397,
      "3610": 8398,
      "2501": 8399,
      "2504": 8400,
      "scula": 8401,
      "0183": 8402,
      "9613": 8403,
      "9619": 8404,
      "9646": 8405,
      "5127": 8406,
      "5119": 8407,
      "tay": 8408,
      "tantra": 8409,
      "5260": 8410,
      "9269": 8411,
      "0229": 8412,
      "0246": 8413,
      "inoxled": 8414,
      "ulz": 8415,
      "navar": 8416,
      "zama": 8417,
      "Albal": 8418,
      "Say": 8419,
      "Sali": 8420,
      "Salas": 8421,
      "bat": 8422,
      "Ġ228": 8423,
      "ture": 8424,
      "viana": 8425,
      "vista": 8426,
      "perfu": 8427,
      "unko": 8428,
      "uncios": 8429,
      "bow": 8430,
      "mante": 8431,
      "Vigilio": 8432,
      "ruf": 8433,
      "ranuncios": 8434,
      "cea": 8435,
      "cey": 8436,
      "cement": 8437,
      "isio": 8438,
      "resort": 8439,
      "neg": 8440,
      "Pacheco": 8441,
      "Arti": 8442,
      "Arco": 8443,
      "Arre": 8444,
      "Argen": 8445,
      "Argan": 8446,
      "job": 8447,
      "joan": 8448,
      "vez": 8449,
      "vela": 8450,
      "Mara": 8451,
      "uster": 8452,
      "Barros": 8453,
      "arat": 8454,
      "beatriz": 8455,
      "sten": 8456,
      "miro": 8457,
      "mirez": 8458,
      "mitj": 8459,
      "Carr": 8460,
      "Carles": 8461,
      "Carbot": 8462,
      "Ġ286": 8463,
      "Ġ287": 8464,
      "Roa": 8465,
      "Roque": 8466,
      "igno": 8467,
      "Santos": 8468,
      "Santamar": 8469,
      "Mat": 8470,
      "Segre": 8471,
      "luc": 8472,
      "fitz": 8473,
      "abl": 8474,
      "riadela": 8475,
      "Peri": 8476,
      "Petit": 8477,
      "Vald": 8478,
      "Monca": 8479,
      "mpart": 8480,
      "lindo": 8481,
      "40923": 8482,
      "varr": 8483,
      "1890": 8484,
      "1899": 8485,
      "2631": 8486,
      "Torro": 8487,
      "Torra": 8488,
      "hoe": 8489,
      "hoya": 8490,
      "Toro": 8491,
      "doceros": 8492,
      "1856": 8493,
      "itan": 8494,
      "itren": 8495,
      "Salares": 8496,
      "hili": 8497,
      "gecars": 8498,
      "geinmadrid": 8499,
      "quE": 8500,
      "6498": 8501,
      "Boro": 8502,
      "muscula": 8503,
      "6850": 8504,
      "6201": 8505,
      "guar": 8506,
      "Juani": 8507,
      "Julio": 8508,
      "1692": 8509,
      "Polica": 8510,
      "Pomp": 8511,
      "styleperfu": 8512,
      "BEAE": 8513,
      "chado": 8514,
      "Corne": 8515,
      "BBAD": 8516,
      "cup": 8517,
      "DEAA": 8518,
      "DEAE": 8519,
      "2672": 8520,
      "Berto": 8521,
      "CADA": 8522,
      "trat": 8523,
      "Andr": 8524,
      "BEDE": 8525,
      "Giras": 8526,
      "Jaled": 8527,
      "CFAD": 8528,
      "Lih": 8529,
      "ACDB": 8530,
      "FEDA": 8531,
      "DCDE": 8532,
      "juni": 8533,
      "DFAC": 8534,
      "oselal": 8535,
      "1261": 8536,
      "DACB": 8537,
      "DACF": 8538,
      "2231": 8539,
      "Ġ313": 8540,
      "grab": 8541,
      "gratis": 8542,
      "7094": 8543,
      "riel": 8544,
      "Paragua": 8545,
      "sonal": 8546,
      "schia": 8547,
      "Medel": 8548,
      "vantes": 8549,
      "Urgell": 8550,
      "brea": 8551,
      "coso": 8552,
      "Candela": 8553,
      "yuki": 8554,
      "dydanie": 8555,
      "Goyen": 8556,
      "icultor": 8557,
      "bracamonte": 8558,
      "super": 8559,
      "Vilal": 8560,
      "3796": 8561,
      "52864416": 8562,
      "enice": 8563,
      "Espinosa": 8564,
      "gerindote": 8565,
      "Porto": 8566,
      "broad": 8567,
      "brown": 8568,
      "salsas": 8569,
      "mytanga": 8570,
      "mystyleperfu": 8571,
      "rizzar": 8572,
      "Castilla": 8573,
      "mello": 8574,
      "wind": 8575,
      "wenvivo": 8576,
      "gonza": 8577,
      "zeat": 8578,
      "viera": 8579,
      "enova": 8580,
      "Palmira": 8581,
      "lland": 8582,
      "llanos": 8583,
      "ecilla": 8584,
      "eddydanie": 8585,
      "cherri": 8586,
      "Pancr": 8587,
      "Olmos": 8588,
      "Clara": 8589,
      "esposa": 8590,
      "phd": 8591,
      "showenvivo": 8592,
      "magicho": 8593,
      "grancolis": 8594,
      "Felix": 8595,
      "tiaherminia": 8596,
      "inski": 8597,
      "eyes": 8598,
      "telef": 8599,
      "espanoly": 8600,
      "Nucle": 8601,
      "Narros": 8602,
      "Sagrada": 8603,
      "crow": 8604,
      "montessori": 8605,
      "msadcs": 8606,
      "Venan": 8607,
      "Venus": 8608,
      "Trini": 8609,
      "brujas": 8610,
      "leika": 8611,
      "professionalhosting": 8612,
      "Adelmo": 8613,
      "Bernuy": 8614,
      "Magdalena": 8615,
      "chinas": 8616,
      "dehadrones": 8617,
      "Nogueras": 8618,
      "Huerva": 8619,
      "sanchezquesa": 8620,
      "Nuestra": 8621,
      "oferta": 8622,
      "pisossantcu": 8623,
      "Paratge": 8624,
      "ticaday": 8625,
      "Aldeanueva": 8626,
      "Arroyomolinos": 8627,
      "homepage": 8628,
      "tetde": 8629,
      "Echevarr": 8630,
      "biosoftware": 8631,
      "palomaj": 8632,
      "beautiful": 8633,
      "Ferreol": 8634,
      "negocios": 8635,
      "Alexia": 8636,
      "lodgema": 8637,
      "lodgeinmadrid": 8638,
      "aulahost": 8639,
      "Malaqu": 8640,
      "ringringcargo": 8641,
      "blueeyes": 8642,
      "07233516": 8643,
      "hogar": 8644,
      "19393302": 8645,
      "33597543": 8646,
      "FIlatelia": 8647,
      "interanuncios": 8648,
      "esteticaday": 8649,
      "softwarema": 8650,
      "Penagos": 8651,
      "79531407": 8652,
      "Jesus": 8653,
      "tresbrujas": 8654,
      "stitucion": 8655,
      "prestigecars": 8656,
      "todecor": 8657,
      "cbgerindote": 8658,
      "ingenieriadela": 8659,
      "Cardenal": 8660,
      "Pelayo": 8661,
      "escuelamontessori": 8662,
      "UeR": 8663,
      "carloshoya": 8664,
      "menegilda": 8665,
      "Fluvi": 8666,
      "caseros": 8667,
      "Arquitecto": 8668,
      "Calzadilla": 8669,
      "eurograb": 8670,
      "Betan": 8671,
      "knights": 8672,
      "photodecor": 8673,
      "Berrocal": 8674,
      "Andreu": 8675,
      "Sobremunt": 8676,
      "Gorostiza": 8677,
      "buscamoto": 8678,
      "25880614": 8679,
      "Diez": 8680,
      "Ingelmos": 8681,
      "Kohls": 8682,
      "Pinilla": 8683,
      "Yomona": 8684,
      "Yulisa": 8685,
      "bueno": 8686,
      "paremoselal": 8687,
      "sservicio": 8688,
      "ssextremadura": 8689,
      "zheimer": 8690,
      "ladigianni": 8691,
      "cocheacoche": 8692,
      "delosrefran": 8693,
      "damboise": 8694,
      "pablobracamonte": 8695,
      "Cayetano": 8696,
      "sportes": 8697,
      "risiberia": 8698,
      "elbauldelosrefran": 8699,
      "ionadordehadrones": 8700,
      "casablancabeach": 8701,
      "incorrectasparos": 8702,
      "gopersonal": 8703,
      "itrends": 8704,
      "musculares": 8705,
      "Paraguay": 8706,
      "Goyenaga": 8707,
      "salsaspain": 8708,
      "mystyleperfume": 8709,
      "eddydaniele": 8710,
      "magichobby": 8711,
      "grancolisionadordehadrones": 8712,
      "espanolynegocios": 8713,
      "Nucleo": 8714,
      "sanchezquesada": 8715,
      "pisossantcugat": 8716,
      "beautifulbody": 8717,
      "lodgemadrid": 8718,
      "0723351625880614": 8719,
      "3359754319393302": 8720,
      "esteticadayda": 8721,
      "softwaremasservicio": 8722,
      "paremoselalzheimer": 8723,
      "elbauldelosrefranes": 8724,
      "0850": 8725,
      "0287": 8726,
      "0750": 8727,
      "0537": 8728,
      "1275": 8729,
      "1457": 8730,
      "2191": 8731,
      "2109": 8732,
      "2464": 8733,
      "3155": 8734,
      "3459": 8735,
      "3295": 8736,
      "3807": 8737,
      "3471": 8738,
      "4135": 8739,
      "4220": 8740,
      "5285": 8741,
      "5698": 8742,
      "6233": 8743,
      "7731": 8744,
      "8409": 8745,
      "8275": 8746,
      "9270": 8747,
      "9505": 8748,
      "Atien": 8749,
      "ABAA": 8750,
      "Bida": 8751,
      "BBDB": 8752,
      "BBDC": 8753,
      "CECD": 8754,
      "CBAC": 8755,
      "CBDF": 8756,
      "CBBF": 8757,
      "CEBF": 8758,
      "Dur": 8759,
      "DBDE": 8760,
      "DBDF": 8761,
      "DBBB": 8762,
      "Emi": 8763,
      "FFEB": 8764,
      "Mex": 8765,
      "Mut": 8766,
      "Odi": 8767,
      "Ton": 8768,
      "Varela": 8769,
      "aj": 8770,
      "cU": 8771,
      "dmar": 8772,
      "daga": 8773,
      "ever": 8774,
      "ffo": 8775,
      "fani": 8776,
      "gna": 8777,
      "zam": 8778,
      "Ġ110": 8779,
      "Ġ123": 8780,
      "Ġ128": 8781,
      "Ġ135": 8782,
      "Ġ299": 8783,
      "Ġ302": 8784,
      "tista": 8785,
      "8099": 8786,
      "8084": 8787,
      "80243": 8788,
      "lido": 8789,
      "limi": 8790,
      "litz": 8791,
      "chine": 8792,
      "robb": 8793,
      "selle": 8794,
      "malas": 8795,
      "Cabani": 8796,
      "llada": 8797,
      "Lauren": 8798,
      "queagel": 8799,
      "Mog": 8800,
      "rem": 8801,
      "2588": 8802,
      "2729": 8803,
      "2756": 8804,
      "rita": 8805,
      "4016": 8806,
      "4003": 8807,
      "4071": 8808,
      "4056": 8809,
      "1018": 8810,
      "1006": 8811,
      "10130": 8812,
      "esca": 8813,
      "esbien": 8814,
      "aldu": 8815,
      "alba": 8816,
      "2901": 8817,
      "6317": 8818,
      "6387": 8819,
      "6324": 8820,
      "6312": 8821,
      "recilla": 8822,
      "2356": 8823,
      "1745": 8824,
      "1750": 8825,
      "1798": 8826,
      "17143": 8827,
      "1580": 8828,
      "6589": 8829,
      "6575": 8830,
      "6516": 8831,
      "6929": 8832,
      "6922": 8833,
      "6987": 8834,
      "6918": 8835,
      "6924": 8836,
      "6966": 8837,
      "1340": 8838,
      "1365": 8839,
      "1343": 8840,
      "1320": 8841,
      "1383": 8842,
      "1381": 8843,
      "1337": 8844,
      "2811": 8845,
      "2846": 8846,
      "2850": 8847,
      "2877": 8848,
      "2812": 8849,
      "2836": 8850,
      "6768": 8851,
      "6734": 8852,
      "6731": 8853,
      "4783": 8854,
      "1948": 8855,
      "1995": 8856,
      "2222": 8857,
      "2205": 8858,
      "22240": 8859,
      "4389": 8860,
      "4341": 8861,
      "4368": 8862,
      "4359": 8863,
      "4342": 8864,
      "43896": 8865,
      "8569": 8866,
      "8544": 8867,
      "8586": 8868,
      "4523": 8869,
      "4561": 8870,
      "6022": 8871,
      "6039": 8872,
      "6000": 8873,
      "6034": 8874,
      "nis": 8875,
      "2019": 8876,
      "2046": 8877,
      "8773": 8878,
      "8716": 8879,
      "8708": 8880,
      "8704": 8881,
      "4910": 8882,
      "4913": 8883,
      "4949": 8884,
      "4954": 8885,
      "8947": 8886,
      "8964": 8887,
      "8981": 8888,
      "8340": 8889,
      "8365": 8890,
      "8381": 8891,
      "8337": 8892,
      "8336": 8893,
      "8301": 8894,
      "EDno": 8895,
      "EDAA": 8896,
      "EDCC": 8897,
      "EDAC": 8898,
      "ECFF": 8899,
      "3945": 8900,
      "3957": 8901,
      "3936": 8902,
      "1117": 8903,
      "1187": 8904,
      "2665": 8905,
      "FAr": 8906,
      "FAEE": 8907,
      "FAAE": 8908,
      "0945": 8909,
      "0975": 8910,
      "0921": 8911,
      "0977": 8912,
      "FCFD": 8913,
      "FCFB": 8914,
      "FCFF": 8915,
      "FCDF": 8916,
      "4847": 8917,
      "4842": 8918,
      "48167": 8919,
      "BAFB": 8920,
      "BAEF": 8921,
      "BACE": 8922,
      "BADF": 8923,
      "FDFB": 8924,
      "FDCA": 8925,
      "FDAF": 8926,
      "EAEE": 8927,
      "4143": 8928,
      "BCBD": 8929,
      "BCBE": 8930,
      "7513": 8931,
      "7509": 8932,
      "7537": 8933,
      "7594": 8934,
      "BDCA": 8935,
      "BDCC": 8936,
      "2119": 8937,
      "2189": 8938,
      "21240": 8939,
      "7340": 8940,
      "7350": 8941,
      "7353": 8942,
      "7306": 8943,
      "7076": 8944,
      "5555": 8945,
      "5518": 8946,
      "5596": 8947,
      "7996": 8948,
      "6860": 8949,
      "6866": 8950,
      "FBBC": 8951,
      "FEBE": 8952,
      "CDFC": 8953,
      "CDFB": 8954,
      "CDDD": 8955,
      "CDEB": 8956,
      "ADEB": 8957,
      "acy": 8958,
      "3045": 8959,
      "3061": 8960,
      "1869": 8961,
      "1883": 8962,
      "18287": 8963,
      "5978": 8964,
      "5080": 8965,
      "5024": 8966,
      "5053": 8967,
      "BBBC": 8968,
      "EEFF": 8969,
      "CAFD": 8970,
      "FFBC": 8971,
      "7429": 8972,
      "DDDA": 8973,
      "DDCE": 8974,
      "DDDB": 8975,
      "CCCC": 8976,
      "CCEF": 8977,
      "2410": 8978,
      "0003": 8979,
      "6463": 8980,
      "6413": 8981,
      "BEBC": 8982,
      "8842": 8983,
      "5375": 8984,
      "9951": 8985,
      "7767": 8986,
      "5769": 8987,
      "5767": 8988,
      "5726": 8989,
      "5716": 8990,
      "EBFB": 8991,
      "EBFF": 8992,
      "1263": 8993,
      "25689": 8994,
      "1440": 8995,
      "DCEC": 8996,
      "DCBA": 8997,
      "DCFB": 8998,
      "DCCA": 8999,
      "DCEF": 9000,
      "1610": 9001,
      "1661": 9002,
      "DAAD": 9003,
      "DACA": 9004,
      "BFFE": 9005,
      "EFFD": 9006,
      "EFFE": 9007,
      "5889": 9008,
      "5848": 9009,
      "5846": 9010,
      "9310": 9011,
      "9357": 9012,
      "ABED": 9013,
      "6243": 9014,
      "CFBC": 9015,
      "DEFB": 9016,
      "CEBB": 9017,
      "3480": 9018,
      "0580": 9019,
      "AEBC": 9020,
      "DBFA": 9021,
      "DBEE": 9022,
      "AFFD": 9023,
      "7187": 9024,
      "3588": 9025,
      "4265": 9026,
      "4260": 9027,
      "4244": 9028,
      "0860": 9029,
      "7613": 9030,
      "7645": 9031,
      "8169": 9032,
      "8143": 9033,
      "3717": 9034,
      "3749": 9035,
      "8629": 9036,
      "8623": 9037,
      "8617": 9038,
      "8685": 9039,
      "8611": 9040,
      "5610": 9041,
      "5667": 9042,
      "5685": 9043,
      "mend": 9044,
      "31495": 9045,
      "3629": 9046,
      "5410": 9047,
      "5413": 9048,
      "5420": 9049,
      "5489": 9050,
      "5144": 9051,
      "duali": 9052,
      "porqueagel": 9053,
      "0669": 9054,
      "9140": 9055,
      "9480": 9056,
      "5223": 9057,
      "onada": 9058,
      "book": 9059,
      "rusas": 9060,
      "110511": 9061,
      "Sanl": 9062,
      "Arruna": 9063,
      "anama": 9064,
      "Robles": 9065,
      "4873": 9066,
      "Sem": 9067,
      "Pedra": 9068,
      "26312": 9069,
      "Torrecilla": 9070,
      "4434": 9071,
      "4435": 9072,
      "1201": 9073,
      "165703": 9074,
      "1605250": 9075,
      "6490": 9076,
      "64976": 9077,
      "2659": 9078,
      "48319901": 9079,
      "Bote": 9080,
      "256769": 9081,
      "muta": 9082,
      "Lude": 9083,
      "1272": 9084,
      "4857": 9085,
      "8032161": 9086,
      "Cordo": 9087,
      "FFCA": 9088,
      "25585": 9089,
      "EFAA": 9090,
      "FFAA": 9091,
      "EFDA": 9092,
      "EEDC": 9093,
      "EEDD": 9094,
      "CEAF": 9095,
      "EEAE": 9096,
      "Anna": 9097,
      "CFAA": 9098,
      "BFAD": 9099,
      "4231": 9100,
      "AEDB": 9101,
      "ACDE": 9102,
      "dorra": 9103,
      "85549": 9104,
      "28646": 9105,
      "85712": 9106,
      "5798": 9107,
      "Orte": 9108,
      "Bedmar": 9109,
      "DCCF": 9110,
      "AECB": 9111,
      "CCAA": 9112,
      "DCAE": 9113,
      "Ġ309": 9114,
      "Castej": 9115,
      "22558": 9116,
      "mcrs": 9117,
      "Celinda": 9118,
      "31750": 9119,
      "Fuensanta": 9120,
      "enilla": 9121,
      "8401535": 9122,
      "afran": 9123,
      "91059": 9124,
      "dann": 9125,
      "8608089": 9126,
      "Maslo": 9127,
      "Flores": 9128,
      "menta": 9129,
      "Borja": 9130,
      "Estru": 9131,
      "Verge": 9132,
      "cliff": 9133,
      "sinduali": 9134,
      "Mailena": 9135,
      "aebo": 9136,
      "Adelfo": 9137,
      "zones": 9138,
      "Federica": 9139,
      "tismo": 9140,
      "Pescador": 9141,
      "Cabezas": 9142,
      "Maestro": 9143,
      "somino": 9144,
      "program": 9145,
      "ofertasrusas": 9146,
      "Florencio": 9147,
      "Estrada": 9148,
      "Gelsomino": 9149,
      "924764976": 9150,
      "nanogener": 9151,
      "638948319901": 9152,
      "9078165703": 9153,
      "3393638948319901": 9154,
      "Calixto": 9155,
      "Figueruelas": 9156,
      "86828032161": 9157,
      "502478401535": 9158,
      "Atienza": 9159,
      "11051114": 9160,
      "Arrunategui": 9161,
      "16052504": 9162,
      "mcrspain": 9163,
      "8608089924764976": 9164,
      "sindualidad": 9165,
      "nanogenerador": 9166,
      "9078165703256769": 9167,
      "8682803216185712": 9168,
      "5024784015351535": 9169,
      "++": 9170,
      "0273": 9171,
      "0607": 9172,
      "1253": 9173,
      "1250": 9174,
      "2103": 9175,
      "2159": 9176,
      "2459": 9177,
      "2150": 9178,
      "3650": 9179,
      "3418": 9180,
      "3212": 9181,
      "4221": 9182,
      "4105": 9183,
      "4639": 9184,
      "4150": 9185,
      "4486": 9186,
      "5298": 9187,
      "5705": 9188,
      "5434": 9189,
      "6457": 9190,
      "6458": 9191,
      "7105": 9192,
      "7238": 9193,
      "7656": 9194,
      "8133": 9195,
      "8179": 9196,
      "8679": 9197,
      "8289": 9198,
      "8673": 9199,
      "8478": 9200,
      "8839": 9201,
      "8496": 9202,
      "8466": 9203,
      "8804": 9204,
      "9135": 9205,
      "9635": 9206,
      "9873": 9207,
      "Af": 9208,
      "Ache": 9209,
      "Ado": 9210,
      "Avi": 9211,
      "Aman": 9212,
      "Ador": 9213,
      "Atal": 9214,
      "Alor": 9215,
      "Aug": 9216,
      "Bro": 9217,
      "BECA": 9218,
      "BFCD": 9219,
      "BFDF": 9220,
      "BFCB": 9221,
      "BBCC": 9222,
      "BFEB": 9223,
      "Badia": 9224,
      "CT": 9225,
      "CBEF": 9226,
      "CEEB": 9227,
      "Dar": 9228,
      "DFCB": 9229,
      "DFDD": 9230,
      "DFBF": 9231,
      "DBBE": 9232,
      "DBEF": 9233,
      "Duran": 9234,
      "Ei": 9235,
      "Ech": 9236,
      "EECD": 9237,
      "EBDE": 9238,
      "Esca": 9239,
      "EBEB": 9240,
      "Ft": 9241,
      "Fen": 9242,
      "Fac": 9243,
      "Ful": 9244,
      "Fis": 9245,
      "FBDE": 9246,
      "Fray": 9247,
      "Gue": 9248,
      "Gorg": 9249,
      "Ira": 9250,
      "Kar": 9251,
      "Lec": 9252,
      "Lap": 9253,
      "MA": 9254,
      "Mus": 9255,
      "Nv": 9256,
      "Ner": 9257,
      "Ob": 9258,
      "Oria": 9259,
      "Oberto": 9260,
      "PA": 9261,
      "Pir": 9262,
      "Pul": 9263,
      "PEr": 9264,
      "Ran": 9265,
      "Rus": 9266,
      "Rillo": 9267,
      "RsE": 9268,
      "SI": 9269,
      "Sis": 9270,
      "Shar": 9271,
      "Sty": 9272,
      "Simo": 9273,
      "Tub": 9274,
      "Tel": 9275,
      "Vio": 9276,
      "VoR": 9277,
      "Wen": 9278,
      "Yel": 9279,
      "Yab": 9280,
      "Yami": 9281,
      "Zan": 9282,
      "aD": 9283,
      "ati": 9284,
      "ambros": 9285,
      "ame": 9286,
      "avilano": 9287,
      "bena": 9288,
      "clo": 9289,
      "cet": 9290,
      "cino": 9291,
      "cun": 9292,
      "deng": 9293,
      "dub": 9294,
      "dru": 9295,
      "eth": 9296,
      "eza": 9297,
      "event": 9298,
      "fE": 9299,
      "fam": 9300,
      "fina": 9301,
      "flor": 9302,
      "gU": 9303,
      "gru": 9304,
      "gria": 9305,
      "hut": 9306,
      "hting": 9307,
      "icode": 9308,
      "iuri": 9309,
      "jac": 9310,
      "jana": 9311,
      "kon": 9312,
      "kra": 9313,
      "mec": 9314,
      "nad": 9315,
      "ou": 9316,
      "ore": 9317,
      "odes": 9318,
      "pn": 9319,
      "pag": 9320,
      "plu": 9321,
      "pug": 9322,
      "phili": 9323,
      "qU": 9324,
      "rd": 9325,
      "rto": 9326,
      "rzano": 9327,
      "sub": 9328,
      "scar": 9329,
      "tlla": 9330,
      "tza": 9331,
      "vadi": 9332,
      "vill": 9333,
      "vrs": 9334,
      "wy": 9335,
      "wie": 9336,
      "wes": 9337,
      "wley": 9338,
      "yos": 9339,
      "yar": 9340,
      "yana": 9341,
      "yena": 9342,
      "ytv": 9343,
      "zen": 9344,
      "zanilla": 9345,
      "zuelo": 9346,
      "Ġ50": 9347,
      "Ġ52": 9348,
      "Ġ139": 9349,
      "Ġ115": 9350,
      "Ġ101": 9351,
      "Ġ308": 9352,
      "ones": 9353,
      "onorato": 9354,
      "cana": 9355,
      "caire": 9356,
      "tear": 9357,
      "tejani": 9358,
      "tepeines": 9359,
      "tiano": 9360,
      "endi": 9361,
      "enas": 9362,
      "encio": 9363,
      "lau": 9364,
      "lang": 9365,
      "lasp": 9366,
      "laba": 9367,
      "labo": 9368,
      "8067": 9369,
      "8064": 9370,
      "8088": 9371,
      "8097": 9372,
      "8096": 9373,
      "lik": 9374,
      "lito": 9375,
      "lices": 9376,
      "inos": 9377,
      "inform": 9378,
      "inal": 9379,
      "inaldo": 9380,
      "innell": 9381,
      "agro": 9382,
      "aglia": 9383,
      "Constitucion": 9384,
      "cco": 9385,
      "cchi": 9386,
      "chen": 9387,
      "chard": 9388,
      "chami": 9389,
      "chel": 9390,
      "check": 9391,
      "colle": 9392,
      "cott": 9393,
      "zie": 9394,
      "zier": 9395,
      "rour": 9396,
      "rova": 9397,
      "ece": 9398,
      "ecrm": 9399,
      "deil": 9400,
      "deir": 9401,
      "devo": 9402,
      "delia": 9403,
      "detti": 9404,
      "aps": 9405,
      "apala": 9406,
      "apicultor": 9407,
      "nov": 9408,
      "seva": 9409,
      "sells": 9410,
      "arron": 9411,
      "calla": 9412,
      "calle": 9413,
      "dall": 9414,
      "dante": 9415,
      "david": 9416,
      "neces": 9417,
      "iet": 9418,
      "leza": 9419,
      "lets": 9420,
      "lellan": 9421,
      "mai": 9422,
      "mang": 9423,
      "imes": 9424,
      "enthal": 9425,
      "uevo": 9426,
      "uevillas": 9427,
      "Cab": 9428,
      "Camin": 9429,
      "Cabo": 9430,
      "Cabra": 9431,
      "kemp": 9432,
      "Lazca": 9433,
      "Coca": 9434,
      "Coria": 9435,
      "Collan": 9436,
      "Mojeda": 9437,
      "kol": 9438,
      "kou": 9439,
      "Chi": 9440,
      "Chil": 9441,
      "patient": 9442,
      "plat": 9443,
      "placeres": 9444,
      "ree": 9445,
      "rever": 9446,
      "spretor": 9447,
      "2556": 9448,
      "2597": 9449,
      "2594": 9450,
      "25185": 9451,
      "thw": 9452,
      "thor": 9453,
      "ciosa": 9454,
      "city": 9455,
      "dica": 9456,
      "disco": 9457,
      "2723": 9458,
      "2711": 9459,
      "2773": 9460,
      "2768": 9461,
      "2718": 9462,
      "2777": 9463,
      "2791": 9464,
      "rardo": 9465,
      "dou": 9466,
      "doug": 9467,
      "doqueo": 9468,
      "4025": 9469,
      "4070": 9470,
      "4082": 9471,
      "40291": 9472,
      "mobil": 9473,
      "carra": 9474,
      "andro": 9475,
      "1069": 9476,
      "1022": 9477,
      "1083": 9478,
      "1054": 9479,
      "10189": 9480,
      "esmer": 9481,
      "alb": 9482,
      "alles": 9483,
      "ciales": 9484,
      "ciasen": 9485,
      "2925": 9486,
      "2923": 9487,
      "2973": 9488,
      "29410": 9489,
      "ssar": 9490,
      "rosen": 9491,
      "rosenthal": 9492,
      "6383": 9493,
      "6374": 9494,
      "6372": 9495,
      "6354": 9496,
      "2328": 9497,
      "2345": 9498,
      "2359": 9499,
      "2358": 9500,
      "2378": 9501,
      "2338": 9502,
      "2396": 9503,
      "2391": 9504,
      "23391": 9505,
      "1765": 9506,
      "1747": 9507,
      "1768": 9508,
      "1759": 9509,
      "1541": 9510,
      "1574": 9511,
      "1571": 9512,
      "1502": 9513,
      "provide": 9514,
      "6519": 9515,
      "6584": 9516,
      "6962": 9517,
      "6998": 9518,
      "6992": 9519,
      "1309": 9520,
      "2895": 9521,
      "tou": 9522,
      "6739": 9523,
      "6741": 9524,
      "6746": 9525,
      "6744": 9526,
      "6700": 9527,
      "6738": 9528,
      "67582": 9529,
      "674743": 9530,
      "4745": 9531,
      "4718": 9532,
      "4757": 9533,
      "4758": 9534,
      "4751": 9535,
      "47494": 9536,
      "1922": 9537,
      "1900": 9538,
      "19278": 9539,
      "2240": 9540,
      "2261": 9541,
      "2268": 9542,
      "4313": 9543,
      "4311": 9544,
      "8527": 9545,
      "8545": 9546,
      "8530": 9547,
      "8574": 9548,
      "8516": 9549,
      "8562": 9550,
      "85257": 9551,
      "4534": 9552,
      "6080": 9553,
      "6067": 9554,
      "6070": 9555,
      "6086": 9556,
      "6004": 9557,
      "nia": 9558,
      "nic": 9559,
      "niques": 9560,
      "nideil": 9561,
      "2039": 9562,
      "2053": 9563,
      "8717": 9564,
      "8720": 9565,
      "8787": 9566,
      "8793": 9567,
      "4950": 9568,
      "4942": 9569,
      "Reguer": 9570,
      "8903": 9571,
      "8962": 9572,
      "8984": 9573,
      "8997": 9574,
      "adix": 9575,
      "adiaz": 9576,
      "8317": 9577,
      "8322": 9578,
      "8351": 9579,
      "EDEA": 9580,
      "EDguez": 9581,
      "EDfero": 9582,
      "Registrarany": 9583,
      "ECDB": 9584,
      "ECDF": 9585,
      "3970": 9586,
      "3908": 9587,
      "1118": 9588,
      "2680": 9589,
      "FAFE": 9590,
      "FADD": 9591,
      "FACC": 9592,
      "FAEF": 9593,
      "FADF": 9594,
      "FAAF": 9595,
      "0915": 9596,
      "0953": 9597,
      "0916": 9598,
      "0935": 9599,
      "FCAB": 9600,
      "FCCE": 9601,
      "FCela": 9602,
      "BAFC": 9603,
      "BACA": 9604,
      "FDAA": 9605,
      "rae": 9606,
      "ractor": 9607,
      "EAED": 9608,
      "EAFD": 9609,
      "EAAD": 9610,
      "EADA": 9611,
      "4113": 9612,
      "BCBB": 9613,
      "BCDC": 9614,
      "BCBF": 9615,
      "7567": 9616,
      "7583": 9617,
      "7597": 9618,
      "3339": 9619,
      "3330": 9620,
      "BDEF": 9621,
      "BDCB": 9622,
      "4623": 9623,
      "4688": 9624,
      "4682": 9625,
      "2117": 9626,
      "2145": 9627,
      "2141": 9628,
      "7365": 9629,
      "7311": 9630,
      "7309": 9631,
      "7301": 9632,
      "7018": 9633,
      "7016": 9634,
      "7058": 9635,
      "70803": 9636,
      "aun": 9637,
      "5540": 9638,
      "5546": 9639,
      "5570": 9640,
      "5514": 9641,
      "5505": 9642,
      "5537": 9643,
      "554929": 9644,
      "7919": 9645,
      "6145": 9646,
      "6160": 9647,
      "6188": 9648,
      "6826": 9649,
      "6888": 9650,
      "6881": 9651,
      "6882": 9652,
      "FBBA": 9653,
      "meera": 9654,
      "FEEB": 9655,
      "FEBF": 9656,
      "CDCA": 9657,
      "CDCB": 9658,
      "ADEC": 9659,
      "ADEA": 9660,
      "ADDD": 9661,
      "1889": 9662,
      "1826": 9663,
      "1868": 9664,
      "1864": 9665,
      "1814": 9666,
      "1816": 9667,
      "5965": 9668,
      "5074": 9669,
      "4420": 9670,
      "4448": 9671,
      "BBFC": 9672,
      "BBBA": 9673,
      "CAFA": 9674,
      "CABE": 9675,
      "CABF": 9676,
      "CACB": 9677,
      "FFFA": 9678,
      "FFBD": 9679,
      "7447": 9680,
      "7419": 9681,
      "AAFB": 9682,
      "AAAF": 9683,
      "DDEE": 9684,
      "DDCC": 9685,
      "DDEB": 9686,
      "CCBA": 9687,
      "2413": 9688,
      "0027": 9689,
      "0015": 9690,
      "0077": 9691,
      "6417": 9692,
      "amos": 9693,
      "BEBF": 9694,
      "8813": 9695,
      "8883": 9696,
      "8841": 9697,
      "8888": 9698,
      "5357": 9699,
      "9930": 9700,
      "6620": 9701,
      "6683": 9702,
      "7723": 9703,
      "7785": 9704,
      "7771": 9705,
      "Entrada": 9706,
      "Entrarany": 9707,
      "insertarany": 9708,
      "ACEB": 9709,
      "5785": 9710,
      "5781": 9711,
      "EBEC": 9712,
      "1429": 9713,
      "DCAD": 9714,
      "DCBE": 9715,
      "1649": 9716,
      "1641": 9717,
      "DAFF": 9718,
      "0310": 9719,
      "0343": 9720,
      "7844": 9721,
      "9315": 9722,
      "9339": 9723,
      "9309": 9724,
      "6210": 9725,
      "DEBA": 9726,
      "CEEC": 9727,
      "3845": 9728,
      "3846": 9729,
      "iras": 9730,
      "3463": 9731,
      "3423": 9732,
      "34192": 9733,
      "0540": 9734,
      "AEEC": 9735,
      "AEBB": 9736,
      "7225": 9737,
      "CBBC": 9738,
      "CBFE": 9739,
      "CBEE": 9740,
      "3529": 9741,
      "3585": 9742,
      "3545": 9743,
      "3520": 9744,
      "3509": 9745,
      "3574": 9746,
      "3577": 9747,
      "str": 9748,
      "mary": 9749,
      "marti": 9750,
      "martin": 9751,
      "7619": 9752,
      "7660": 9753,
      "8185": 9754,
      "8168": 9755,
      "37488": 9756,
      "8243": 9757,
      "5617": 9758,
      "564059": 9759,
      "3163": 9760,
      "9729": 9761,
      "9747": 9762,
      "9789": 9763,
      "0765": 9764,
      "0785": 9765,
      "somos": 9766,
      "saave": 9767,
      "0117": 9768,
      "5115": 9769,
      "tak": 9770,
      "taz": 9771,
      "tavia": 9772,
      "taka": 9773,
      "talia": 9774,
      "9867": 9775,
      "9168": 9776,
      "indel": 9777,
      "0423": 9778,
      "9210": 9779,
      "9267": 9780,
      "iado": 9781,
      "ullos": 9782,
      "umi": 9783,
      "nat": 9784,
      "nair": 9785,
      "nasext": 9786,
      "natural": 9787,
      "zati": 9788,
      "zabal": 9789,
      "vada": 9790,
      "Alg": 9791,
      "Alt": 9792,
      "Alu": 9793,
      "Alca": 9794,
      "Almo": 9795,
      "Alfor": 9796,
      "Almu": 9797,
      "Aldeh": 9798,
      "Alcole": 9799,
      "Salom": 9800,
      "Salinas": 9801,
      "fol": 9802,
      "fotogra": 9803,
      "bauer": 9804,
      "tuito": 9805,
      "tumeu": 9806,
      "onato": 9807,
      "boda": 9808,
      "manzan": 9809,
      "Viana": 9810,
      "Vista": 9811,
      "cela": 9812,
      "ceto": 9813,
      "09043": 9814,
      "gaR": 9815,
      "gala": 9816,
      "gant": 9817,
      "gaseosa": 9818,
      "tson": 9819,
      "isch": 9820,
      "anyi": 9821,
      "respa": 9822,
      "resapala": 9823,
      "Pater": 9824,
      "Arc": 9825,
      "Arcos": 9826,
      "Arban": 9827,
      "joya": 9828,
      "vey": 9829,
      "veri": 9830,
      "Mardoqueo": 9831,
      "Bartra": 9832,
      "Bartumeu": 9833,
      "beli": 9834,
      "miento": 9835,
      "Carrillo": 9836,
      "bernero": 9837,
      "Ġ285": 9838,
      "Gua": 9839,
      "Guare": 9840,
      "Bat": 9841,
      "Baja": 9842,
      "Batet": 9843,
      "Rojo": 9844,
      "Robusti": 9845,
      "4878": 9846,
      "Maz": 9847,
      "Maquie": 9848,
      "Mateu": 9849,
      "lud": 9850,
      "luci": 9851,
      "lutz": 9852,
      "Ġ116": 9853,
      "Monta": 9854,
      "Monestel": 9855,
      "aton": 9856,
      "sima": 9857,
      "vasili": 9858,
      "25721": 9859,
      "Villase": 9860,
      "19033": 9861,
      "merlina": 9862,
      "hotel": 9863,
      "Tom": 9864,
      "Tolaba": 9865,
      "ity": 9866,
      "Inda": 9867,
      "1294": 9868,
      "1833": 9869,
      "1838747": 9870,
      "head": 9871,
      "undar": 9872,
      "10520": 9873,
      "27310": 9874,
      "1403": 9875,
      "quia": 9876,
      "quillos": 9877,
      "quecla": 9878,
      "quader": 9879,
      "16093": 9880,
      "bian": 9881,
      "6499": 9882,
      "1878": 9883,
      "Boca": 9884,
      "Bovera": 9885,
      "15863": 9886,
      "453835": 9887,
      "Luz": 9888,
      "4898": 9889,
      "2479": 9890,
      "Raim": 9891,
      "Rachid": 9892,
      "40068": 9893,
      "Poma": 9894,
      "pota": 9895,
      "conera": 9896,
      "congaseosa": 9897,
      "200418": 9898,
      "Madre": 9899,
      "Els": 9900,
      "Corvera": 9901,
      "BBAB": 9902,
      "cumbar": 9903,
      "pic": 9904,
      "piz": 9905,
      "pila": 9906,
      "Rica": 9907,
      "Ripol": 9908,
      "FFCE": 9909,
      "EFAD": 9910,
      "FFAB": 9911,
      "EEDB": 9912,
      "43718": 9913,
      "1214": 9914,
      "2674": 9915,
      "8500983": 9916,
      "CADF": 9917,
      "traca": 9918,
      "train": 9919,
      "AnTe": 9920,
      "Jaime": 9921,
      "12214": 9922,
      "Liana": 9923,
      "Libert": 9924,
      "4676": 9925,
      "AEAA": 9926,
      "6556979": 9927,
[...]
