{"<s>":0,"<pad>":1,"</s>":2,"<unk>":3,"<mask,>":4,"!":5,"\"":6,"#":7,"$":8,"%":9,"&":10,"'":11,"(":12,")":13,"*":14,"+":15,",":16,"-":17,".":18,"/":19,"0":20,"1":21,"2":22,"3":23,"4":24,"5":25,"6":26,"7":27,"8":28,"9":29,":":30,";":31,"<":32,"=":33,">":34,"?":35,"@":36,"A":37,"B":38,"C":39,"D":40,"E":41,"F":42,"G":43,"H":44,"I":45,"J":46,"K":47,"L":48,"M":49,"N":50,"O":51,"P":52,"Q":53,"R":54,"S":55,"T":56,"U":57,"V":58,"W":59,"X":60,"Y":61,"Z":62,"[":63,"\\":64,"]":65,"^":66,"_":67,"`":68,"a":69,"b":70,"c":71,"d":72,"e":73,"f":74,"g":75,"h":76,"i":77,"j":78,"k":79,"l":80,"m":81,"n":82,"o":83,"p":84,"q":85,"r":86,"s":87,"t":88,"u":89,"v":90,"w":91,"x":92,"y":93,"z":94,"{":95,"|":96,"}":97,"~":98,"¡":99,"¢":100,"£":101,"¤":102,"¥":103,"¦":104,"§":105,"¨":106,"©":107,"ª":108,"«":109,"¬":110,"®":111,"¯":112,"°":113,"±":114,"²":115,"³":116,"´":117,"µ":118,"¶":119,"·":120,"¸":121,"¹":122,"º":123,"»":124,"¼":125,"½":126,"¾":127,"¿":128,"À":129,"Á":130,"Â":131,"Ã":132,"Ä":133,"Å":134,"Æ":135,"Ç":136,"È":137,"É":138,"Ê":139,"Ë":140,"Ì":141,"Í":142,"Î":143,"Ï":144,"Ð":145,"Ñ":146,"Ò":147,"Ó":148,"Ô":149,"Õ":150,"Ö":151,"×":152,"Ø":153,"Ù":154,"Ú":155,"Û":156,"Ü":157,"Ý":158,"Þ":159,"ß":160,"à":161,"á":162,"â":163,"ã":164,"ä":165,"å":166,"æ":167,"ç":168,"è":169,"é":170,"ê":171,"ë":172,"ì":173,"í":174,"î":175,"ï":176,"ð":177,"ñ":178,"ò":179,"ó":180,"ô":181,"õ":182,"ö":183,"÷":184,"ø":185,"ù":186,"ú":187,"û":188,"ü":189,"ý":190,"þ":191,"ÿ":192,"Ā":193,"ā":194,"Ă":195,"ă":196,"Ą":197,"ą":198,"Ć":199,"ć":200,"Ĉ":201,"ĉ":202,"Ċ":203,"ċ":204,"Č":205,"č":206,"Ď":207,"ď":208,"Đ":209,"đ":210,"Ē":211,"ē":212,"Ĕ":213,"ĕ":214,"Ė":215,"ė":216,"Ę":217,"ę":218,"Ě":219,"ě":220,"Ĝ":221,"ĝ":222,"Ğ":223,"ğ":224,"Ġ":225,"ġ":226,"Ģ":227,"ģ":228,"Ĥ":229,"ĥ":230,"Ħ":231,"ħ":232,"Ĩ":233,"ĩ":234,"Ī":235,"ī":236,"Ĭ":237,"ĭ":238,"Į":239,"į":240,"İ":241,"ı":242,"Ĳ":243,"ĳ":244,"Ĵ":245,"ĵ":246,"Ķ":247,"ķ":248,"ĸ":249,"Ĺ":250,"ĺ":251,"Ļ":252,"ļ":253,"Ľ":254,"ľ":255,"Ŀ":256,"ŀ":257,"Ł":258,"ł":259,"Ń":260,"se":261,"on":262,"Ġ/":263,"HT":264,"TP":265,"pl":266,"ĠHT":267,"ĠHTTP":268,"Ġ\"":269,"as":270,"in":271,"ser":272,"ar":273,"ex":274,"am":275,"om":276,"ET":277,"Ho":278,"GET":279,"com":280,"st":281,"Ġex":282,"ple":283,"ample":284,"Host":285,"Ġexample":286,"en":287,"ent":288,"ion":289,"\":":290,"ap":291,"user":292,"ass":293,"pass":294,"ch":295,"ad":296,"adm":297,"admin":298,"sear":299,"search":300,"bo":301,"das":302,"hbo":303,"ard":304,"dashbo":305,"dashboard":306,"id":307,"gin":308,"lo":309,"login":310,"ont":311,"at":312,"cat":313,"User":314,"ss":315,"Ag":316,"Mo":317,"il":318,"la":319,"zil":320,"ĠMo":321,"Agent":322,"zilla":323,"ĠMozilla":324,"Ġse":325,"Co":326,"ie":327,"kie":328,"okie":329,"ssion":330,"Ġsession":331,"Cookie":332,"\",":333,"\"}":334,"Cont":335,"OS":336,"POS":337,"Ty":338,"icat":339,"js":340,"pe":341,"{\"":342,"Ġap":343,"plicat":344,"api":345,"Content":346,"POST":347,"Type":348,"json":349,"Ġapplicat":350,"Ġapplication":351,"25":352,"252":353,"ip":354,"*/":355,"**/":356,"cr":357,"LE":358,"ipt":359,"20":360,"cript":361,"RO":362,"2520":363,"/**/":364,"passw":365,"12":366,"le":367,"SE":368,"rt":369,"ale":370,"et":371,"alert":372,"CT":373,"etc":374,"ROM":375,"passwd":376,"script":377,"LECT":378,"FROM":379,"SELECT":380,"users":381,"ct":382,"hon":383,"iphon":384,"iphone":385,"34":386,"1234":387,"12345":388,"act":389,"cont":390,"contact":391,"253":392,"112":393,"SS":394,"OR":395,"av":396,"or":397,"ec":398,"jav":399,"ho":400,"javas":401,"28":402,"29":403,"javascript":404,"who":405,"ami":406,"chr":407,"ord":408,"exec":409,"AB":410,"XSS":411,"whoami":412,"=%":413,"UN":414,"admins":415,"password":416,"ON":417,"TAB":418,"ROP":419,"2528":420,"2529":421,"UNI":422,"DROP":423,"TABLE":424,"UNION":425,"=/":426,"&&":427,"))":428,"')":429,"('":430,"</":431,"')</":432,"27":433,"=&&":434,"ĠFROM":435,"Aalert":436,"=|":437,"Ġ1":438,"Ġusers":439,"Ġ*":440,"Cscript":441,"Ealert":442,"2526":443,"=<":444,"Ġ\"%":445,"26":446,"2527":447,"Ġ\"/":448,"lE":449,"Ġwhoami":450,"Ġcat":451,"281":452,"Le":453,"sE":454,"25201":455,"Ġf":456,"201":457,")\"}":458,"Ġ\"|":459,"28112":460,"ĠSELECT":461,"ĠTABLE":462,"/**//":463,"Se":464,"2528112":465,"Ġu":466,"*/**/":467,"/**/*/**/":468,"Ss":469,"257":470,"Ġadmins":471,"Ġ\"&&":472,"25281":473,"Ġpassword":474,"))\"}":475,">\"}":476,"Ġ\"<":477,"ĠF":478,"ĠU":479,"iP":480,"PA":481,"CR":482,"rO":483,"cR":484,"pA":485,"Ip":486,"Cr":487,"sS":488,"=|/**/":489,"=&&/**/":490,"IP":491,"ĠC":492,"Rs":493,"eT":494,"ro":495,"Rt":496,"Et":497,"wd":498,"wD":499,"Wd":500,"rT":501,"ĠA":502,"Ro":503,"WD":504,"Or":505,"MI":506,"ĠW":507,"Ġt":508,"RS":509,"Ct":510,"oR":511,"iPt":512,"rs":513,"ĠT":514,"pa":515,"SCR":516,"Ġc":517,"IpT":518,"Mi":519,"RT":520,"cT":521,"iPT":522,"Pa":523,"ipT":524,"Ġw":525,"SCr":526,"rS":527,"asS":528,"scR":529,"mI":530,"Ipt":531,"eTc":532,"IPT":533,"ScR":534,"At":535,"sCr":536,"sCR":537,"NS":538,"Ġ\"|/**/":539,"ĠuSE":540,"EtC":541,"rom":542,"Ġ\"&&/**/":543,"ĠPA":544,"Ch":545,"ĠSe":546,"ĠFrO":547,"IPt":548,"OA":549,"ĠUsE":550,"roM":551,"oN":552,"ĠTa":553,"Ale":554,"Hr":555,"scr":556,"ETc":557,"etC":558,"ĠusE":559,"ĠuSe":560,"EC":561,"Pass":562,"Ab":563,"Rom":564,"Un":565,"aLe":566,"ĠSE":567,"ĠUSE":568,"Scr":569,"eX":570,"AT":571,"alE":572,"ĠAd":573,"aV":574,"mi":575,"uN":576,"RoM":577,"aT":578,"un":579,"ĠAD":580,"ALE":581,"Ec":582,"Ex":583,"ĠpA":584,"eTC":585,"aD":586,"ĠaD":587,"Etc":588,"Av":589,"AlE":590,"ĠsE":591,"paSS":592,"ALe":593,"ĠfrO":594,"ĠUSe":595,"ROm":596,"EX":597,"eC":598,"PaSs":599,"AV":600,"On":601,"aLE":602,"ETC":603,"Ġta":604,"paSs":605,"lEct":606,"Ord":607,"Ns":608,"XsS":609,"HR":610,"pasS":611,"PasS":612,"ĠFrOM":613,"Ġad":614,"Lect":615,"ĠfroM":616,"ĠCat":617,"ns":618,"ROp":619,"ORd":620,"ĠCAt":621,"ĠTaB":622,"xSS":623,"Ġfrom":624,"ĠcAt":625,"PaSS":626,"dro":627,"lect":628,"lECT":629,"ĠfRom":630,"ĠtAB":631,"ĠTAb":632,"CHr":633,"Min":634,"ORD":635,"lEcT":636,"ĠCAT":637,"ChR":638,"HOA":639,"aMi":640,"hOA":641,"lecT":642,"ĠFrom":643,"Chr":644,"DRo":645,"Lec":646,"iON":647,"chR":648,"ĠfRoM":649,"PASS":650,"PAsS":651,"pASS":652,"pAsS":653,"unI":654,"LecT":655,"Jav":656,"ioN":657,"nS":658,"Ġwho":659,"ĠWho":660,"UnI":661,"Ġtab":662,"HO":663,"JaV":664,"cHr":665,"drO":666,"jaV":667,"lECt":668,"ĠfROM":669,"Ġuse":670,"PAss":671,"PASs":672,"ĠcaT":673,"AvA":674,"ĠfrOm":675,"Dro":676,"xss":677,"leCT":678,"ĠFROm":679,"pASs":680,"ĠCaT":681,"oRD":682,"ĠwHo":683,"DrO":684,"jAV":685,"Ġadm":686,"LECt":687,"ĠFroM":688,"ĠFRoM":689,"ĠFrOm":690,"ĠTab":691,"LeCt":692,"ĠFRom":693,"pAss":694,"ĠtAb":695,"oRd":696,"dRo":697,"xsS":698,"ĠUser":699,"ĠTAB":700,"ĠPass":701,"leCt":702,"LeCT":703,"ĠcAT":704,"ĠusERs":705,"uNI":706,"WOrd":707,"xSs":708,"ĠfROm":709,"AleRt":710,"aLerT":711,"ĠfrOM":712,"CHR":713,"JAV":714,"Xss":715,"XSs":716,"dROp":717,"iOn":718,"wORd":719,"ĠuSErs":720,"droP":721,"WORD":722,"hO":723,"ssw":724,"LEcT":725,"ĠUse":726,"ĠWHo":727,"ĠuSers":728,"cHR":729,"dROP":730,"asCR":731,"exEc":732,"MINS":733,"ĠwHOA":734,"ĠPAsS":735,"ĠUSERs":736,"alErt":737,"ĠAdmI":738,"Mins":739,"ĠwHoA":740,"aSCR":741,"min":742,"ĠPaSs":743,"ĠpaSs":744,"LEct":745,"aleRt":746,"alerT":747,"OrD":748,"MIns":749,"SCriPt":750,"ĠuSERs":751,"eXec":752,"ALert":753,"DRop":754,"ĠwhoA":755,"Drop":756,"ĠadmI":757,"Word":758,"aMI":759,"amI":760,"orD":761,"ĠuSERS":762,"ĠPASs":763,"ĠUsERs":764,"ĠUsERS":765,"ĠUsErS":766,"ĠuSeRs":767,"aLeRt":768,"eXEC":769,"ĠtaB":770,"ĠTAblE":771,"ĠWhoA":772,"JaVA":773,"drOP":774,"DrOp":775,"DROp":776,"jAvA":777,"Ġuser":778,"ĠWhOA":779,"ĠWHO":780,"ĠwhOA":781,"sCripT":782,"Alert":783,"Exec":784,"ExEC":785,"ĠaDmI":786,"AlERt":787,"paSSwD":788,"ĠUSeRs":789,"ĠUSers":790,"ĠuserS":791,"JAv":792,"WORd":793,"WoRd":794,"exeC":795,"MiNS":796,"SCrIpt":797,"scRIpT":798,"sCRiPT":799,"ĠuSerS":800,"ĠUSERS":801,"alErT":802,"miNS":803,"ALErt":804,"ALERT":805,"ĠpAsS":806,"AlErT":807,"EXEC":808,"aLERt":809,"MinS":810,"JavA":811,"ĠuseRS":812,"dRoP":813,"ĠUserS":814,"Script":815,"word":816,"wOrd":817,"woRD":818,"ascR":819,"exEC":820,"ĠWHOA":821,"ScRipT":822,"ĠuSErS":823,"ĠPASS":824,"ĠUsErs":825,"ĠusErs":826,"aLert":827,"ĠUSErs":828,"alERT":829,"ALERt":830,"ALeRt":831,"EXEc":832,"drop":833,"ĠuseRs":834,"JAvA":835,"ĠpaSS":836,"ĠpasS":837,"MInS":838,"ĠWhO":839,"SCRIPT":840,"MiNs":841,"ĠwHO":842,"sCRiPt":843,"AleRT":844,"ĠusERS":845,"ĠusErS":846,"PassWD":847,"ĠUSErS":848,"eXeC":849,"uNion":850,"ExeC":851,"paSswd":852,"pasSwD":853,"PaSSwd":854,"DRoP":855,"WoRD":856,"ascr":857,"SElEct":858,"UNIon":859,"SCript":860,"scRIPT":861,"ScRipt":862,"AlerT":863,"scriPt":864,"scrIpT":865,"PasswD":866,"eXEc":867,"miNs":868,"ĠADmI":869,"ALErT":870,"ĠpASS":871,"ĠpASs":872,"ĠpAssw":873,"AlERT":874,"ALerT":875,"EXec":876,"PaSsWd":877,"aLErT":878,"aLERT":879,"ĠTaBle":880,"ĠtABle":881,"pASSWD":882,"pAsSWd":883,"unIoN":884,"drOp":885,"jaVA":886,"PASswd":887,"pASswD":888,"wOrD":889,"ĠPasS":890,"passWd":891,"passWD":892,"UNIOn":893,"SCRiPT":894,"scRipt":895,"scRiPT":896,"scRIpt":897,"ScRiPt":898,"ScRIpT":899,"sCriPt":900,"sCrIPT":901,"scriPT":902,"ĠuSeRS":903,"Union":904,"ScripT":905,"alERt":906,"ExEc":907,"AlErt":908,"paSSwd":909,"ĠUSerS":910,"PaSswD":911,"aLErt":912,"PasSWd":913,"ĠTaBLE":914,"PASSwd":915,"PASSWD":916,"PAsSwd":917,"ĠtabLE":918,"ĠUseRs":919,"ĠUseRS":920,"mins":921,"aSCr":922,"jAv":923,"wORD":924,"worD":925,"javA":926,"SCRipt":927,"SCRIPt":928,"scRiPt":929,"sCrIpT":930,"sCrIpt":931,"sCRipt":932,"sCRIpT":933,"ĠPAssw":934,"ĠSelECT":935,"ĠSelecT":936,"UnioN":937,"ScrIpt":938,"ScrIPt":939,"uniON":940,"paSSWd":941,"ĠUSeRS":942,"EXeC":943,"PasSWD":944,"ĠadMins":945,"ĠTaBlE":946,"ĠtABlE":947,"unIon":948,"UnIOn":949,"PAssWd":950,"DroP":951,"DrOP":952,"jAVA":953,"ĠTable":954,"pAssWd":955,"ĠtAble":956,"dRop":957,"ĠUsers":958,"ĠTABle":959,"JAVA":960,"WOrD":961,"Ġpass":962,"aleRT":963,"UNiON":964,"UNioN":965,"UNiOn":966,"UNIoN":967,"sElect":968,"sELecT":969,"SCRiPt":970,"SCRIpT":971,"SCRIpt":972,"ĠwhO":973,"SCriPT":974,"SCrIPT":975,"ScRiPT":976,"ScRIpt":977,"sCript":978,"sCriPT":979,"sCRipT":980,"sCRIPt":981,"ĠPAss":982,"scrIpt":983,"scrIPT":984,"Passwd":985,"ScriPt":986,"ScriPT":987,"ScrIPT":988,"ĠAdmiNs":989,"uNioN":990,"union":991,"ĠsELECT":992,"ALeRT":993,"PaSSWD":994,"ĠtABLe":995,"ĠTAble":996,"PASSwD":997,"PAsSWD":998,"pASSWd":999,"pAsSwd":1000,"UnION":1001,"Ġtable":1002,"PASswD":1003,"Ġadmi":1004,"ĠTabLe":1005,"pAsswd":1006,"ĠTABLe":1007,"uNIoN":1008,"ĠAdmInS":1009,"minS":1010,"ĠWhoAMI":1011,"woRd":1012,"ĠPaSS":1013,"seLect":1014,"selECt":1015,"asCr":1016,"ĠseLect":1017,"ĠseLeCT":1018,"UNion":1019,"sElEct":1020,"sElEcT":1021,"sEleCT":1022,"scRipT":1023,"ScRIPT":1024,"ScRIPt":1025,"sCRIPT":1026,"ĠSeLECt":1027,"scripT":1028,"scrIPt":1029,"UniON":1030,"aLeRT":1031,"ĠSElect":1032,"ĠSEleCT":1033,"ĠSELeCt":1034,"ScrIpT":1035,"uNiON":1036,"ĠADmiNS":1037,"PaSswd":1038,"ĠTaBLe":1039,"ĠtABLE":1040,"PAsSwD":1041,"pASSwD":1042,"pAsSwD":1043,"ĠwhoaMi":1044,"UnIoN":1045,"ĠtablE":1046,"PAsswD":1047,"PAssWD":1048,"ĠTablE":1049,"ĠtAblE":1050,"ĠtAbLe":1051,"ĠTABlE":1052,"uNIon":1053,"uNION":1054,"ĠWHoA":1055,"ĠwHOAMI":1056,"ĠAdmINS":1057,"ĠwHoAmI":1058,"ĠwhoAmi":1059,"ĠadmINS":1060,"ĠadmIns":1061,"ĠWhOAMI":1062,"ĠWHOaMi":1063,"ĠaDmIns":1064,"Ġpassw":1065,"seLECT":1066,"ĠselEcT":1067,"ĠselecT":1068,"SELect":1069,"SEleCt":1070,"sELEcT":1071,"SeLect":1072,"SeLeCT":1073,"SCRipT":1074,"scRIPt":1075,"ĠSeLecT":1076,"ĠSeLeCt":1077,"PassWd":1078,"ĠAdmiNS":1079,"uNiOn":1080,"ĠADMINS":1081,"ĠADmins":1082,"ĠpAss":1083,"ĠaDMINS":1084,"paSsWd":1085,"pasSWd":1086,"pasSWD":1087,"PasSwd":1088,"ĠadMINS":1089,"ĠadMIns":1090,"ĠadMiNs":1091,"ĠTAbLE":1092,"PAsSWd":1093,"unION":1094,"UnIon":1095,"jaVasCR":1096,"PAsswd":1097,"PASsWd":1098,"pASsWd":1099,"pASsWD":1100,"ĠWHoami":1101,"ĠWHoaMi":1102,"ĠwHOAMi":1103,"ĠwHoAmi":1104,"ĠtaBlE":1105,"ĠtaBLe":1106,"ĠWhoAMi":1107,"ĠwhOAMi":1108,"ĠWHOAmi":1109,"WorD":1110,"aSCriPt":1111,"selEct":1112,"seLEct":1113,"ĠseLECT":1114,"Ġselect":1115,"ĠseLecT":1116,"SElECT":1117,"SElEcT":1118,"SElECt":1119,"javaSCR":1120,"sElECt":1121,"sELEct":1122,"SelECT":1123,"SelEcT":1124,"SeLECt":1125,"SCrIPt":1126,"sCRIpt":1127,"ĠSelEct":1128,"ĠSeLect":1129,"UniOn":1130,"ĠSElEct":1131,"ĠSELect":1132,"ĠSElECT":1133,"ĠSElEcT":1134,"ĠSEleCt":1135,"ĠAdMIns":1136,"unioN":1137,"ĠADMins":1138,"ĠADMIns":1139,"ĠADMiNS":1140,"ĠaDMins":1141,"ĠaDMiNS":1142,"ĠaDMinS":1143,"ĠsElEct":1144,"ĠsElecT":1145,"ĠsElECt":1146,"ĠsEleCT":1147,"paSSWD":1148,"paSswD":1149,"paSsWD":1150,"pasSwd":1151,"PasSwD":1152,"ĠadMinS":1153,"ĠadMInS":1154,"PaSSwD":1155,"PaSSWd":1156,"ĠTAbLe":1157,"pASSwd":1158,"pAsSWD":1159,"unIOn":1160,"Java":1161,"ĠWhoami":1162,"ĠtabLe":1163,"pASswd":1164,"jAVa":1165,"pAssWD":1166,"aSCRipt":1167,"ĠwhoAmI":1168,"ĠPASswORd":1169,"ĠWhOAmi":1170,"ĠWHOami":1171,"ĠwhOAMI":1172,"ĠpAsSwOrd":1173,"ĠWhOami":1174,"ĠwHOaMi":1175,"ascrIPt":1176,"ĠpAsswOrd":1177,"ĠadmiNs":1178,"select":1179,"selECT":1180,"selEcT":1181,"seLecT":1182,"seleCt":1183,"seLeCT":1184,"ĠselEct":1185,"ĠselECT":1186,"SElect":1187,"SEleCT":1188,"SELECt":1189,"java":1190,"javascr":1191,"sELect":1192,"sElECT":1193,"sELECt":1194,"SeLECT":1195,"SelEct":1196,"Select":1197,"SelecT":1198,"SeLeCt":1199,"MINs":1200,"SCrIpT":1201,"SCripT":1202,"sCrIPt":1203,"ĠSelECt":1204,"ĠSELecT":1205,"ĠSELEcT":1206,"ĠAdMiNS":1207,"ĠAdMinS":1208,"ĠAdMInS":1209,"ĠAdminS":1210,"uniOn":1211,"ĠADMiNs":1212,"ĠADminS":1213,"ĠaDMIns":1214,"ĠaDMInS":1215,"ĠsElect":1216,"ĠsElEcT":1217,"ĠsELECt":1218,"ĠsEleCt":1219,"JavascR":1220,"ĠwhoaMI":1221,"ĠWhoamI":1222,"JaVa":1223,"jaVascR":1224,"PASsWD":1225,"ĠwHoami":1226,"ĠwHoaMi":1227,"jAVasCR":1228,"pAsswD":1229,"ĠPassWORD":1230,"ĠPasswoRD":1231,"JAVa":1232,"JAVasCR":1233,"ĠwHOAmI":1234,"ĠwHOAmi":1235,"ĠPAsSWOrd":1236,"ĠPAsSWoRd":1237,"ĠPAsSwOrD":1238,"ĠwHoAMI":1239,"ĠwHoAMi":1240,"aSCRIpT":1241,"ĠpaSsWORD":1242,"ĠwhoAMI":1243,"ĠwhoAMi":1244,"ĠtaBLE":1245,"ĠWhOAmI":1246,"ĠwhOAmI":1247,"ĠaDmINs":1248,"ĠaDmInS":1249,"JAvascr":1250,"ĠpAsSwORd":1251,"ĠWHOAMI":1252,"ĠWHOAmI":1253,"ĠpaSSworD":1254,"ĠpasSwORd":1255,"ĠWhOaMI":1256,"ĠWhOamI":1257,"ĠwHOami":1258,"ĠADmIns":1259,"ĠADmInS":1260,"ĠpAssword":1261,"ĠPasSWoRd":1262,"aSCripT":1263,"jAvascrIPt":1264,"ĠPAssworD":1265,"ĠpassWOrd":1266,"ĠwhOamI":1267,"ĠPAssWOrd":1268,"ĠadmiNS":1269,"ĠWHoAmI":1270,"ĠpAssWOrd":1271,"jaVasCRiPt":1272,"Ġadmin":1273,"selecT":1274,"seleCT":1275,"seLeCt":1276,"ascript":1277,"ĠseleCt":1278,"ĠseLEcT":1279,"passwD":1280,"SElecT":1281,"SELecT":1282,"SELeCt":1283,"SELEct":1284,"javaSCripT":1285,"sElecT":1286,"SeLecT":1287,"SelECt":1288,"SeLEcT":1289,"ĠSeLECT":1290,"ĠSelect":1291,"ĠSeleCT":1292,"ĠSeleCt":1293,"ĠSeLeCT":1294,"ĠSeLEcT":1295,"ĠSeLEct":1296,"ĠSElecT":1297,"ĠSElECt":1298,"ĠSELECt":1299,"ĠSELeCT":1300,"ĠAdMINS":1301,"ĠAdmins":1302,"ĠADMinS":1303,"ĠaDmiNS":1304,"ĠaDMiNs":1305,"ĠaDmiNs":1306,"ĠaDmins":1307,"ĠsElECT":1308,"ĠsELeCt":1309,"ĠsELEcT":1310,"ĠsELEct":1311,"PaSsWD":1312,"ĠadMiNS":1313,"PASSWd":1314,"ĠWhoaMi":1315,"ĠWhoaMI":1316,"JaVascR":1317,"JaVaSCRipt":1318,"jaVa":1319,"jaVascr":1320,"jAVaSCR":1321,"jAVasCr":1322,"ĠTabLE":1323,"ĠtAbLE":1324,"ĠPassWORd":1325,"ĠPassWoRd":1326,"ĠPassWoRD":1327,"ĠPasswoRd":1328,"uNIOn":1329,"JAVaSCr":1330,"asCRiPT":1331,"ĠPAsSwORd":1332,"ĠPAsSWORD":1333,"ĠPAsSwOrd":1334,"ĠAdmINs":1335,"ĠAdmIns":1336,"ĠPaSsWOrd":1337,"ĠPaSsWORD":1338,"ĠPaSsword":1339,"ĠPaSswORD":1340,"ĠpaSsWORd":1341,"ĠpaSsword":1342,"ĠpaSsWoRD":1343,"ĠadmINs":1344,"ĠadmInS":1345,"ĠPASsWord":1346,"ĠPASswOrd":1347,"ĠPASsWoRD":1348,"ĠtaBle":1349,"ĠWhoAmI":1350,"jAvAScrIPt":1351,"jAvAScRIpt":1352,"ĠWHOaMI":1353,"ĠWHOamI":1354,"ĠwhOAmi":1355,"ĠaDmINS":1356,"JAvasCR":1357,"JAvascR":1358,"JAvaSCriPt":1359,"ĠPASSWORD":1360,"ĠPASSword":1361,"JAvAScript":1362,"ĠpaSSWORD":1363,"ĠpaSSWORd":1364,"ĠpasSword":1365,"ĠpasSwoRD":1366,"ĠwHOaMI":1367,"ĠwHOamI":1368,"ĠADmINS":1369,"ĠADmINs":1370,"ĠpASSworD":1371,"ĠpASswORd":1372,"ĠpASsWord":1373,"ĠpAsswORD":1374,"jaVAscRipT":1375,"ĠPasSWord":1376,"jAvaSCR":1377,"ĠPAsswoRd":1378,"jAVAsCRipT":1379,"ĠwhOaMi":1380,"ĠPAssWorD":1381,"ĠPaSSWOrD":1382,"asCrIPt":1383,"ĠWHoAMI":1384,"ĠpasswORD":1385,"JavascRipT":1386,"jaVascRIpT":1387,"ĠadminS":1388}